{"<s>":0,"<pad>":1,"</s>":2,"<unk>":3,"<mask>":4,"!":5,"\"":6,"#":7,"$":8,"%":9,"&":10,"'":11,"(":12,")":13,"*":14,"+":15,",":16,"-":17,".":18,"/":19,"0":20,"1":21,"2":22,"3":23,"4":24,"5":25,"6":26,"7":27,"8":28,"9":29,":":30,";":31,"<":32,"=":33,">":34,"?":35,"@":36,"A":37,"B":38,"C":39,"D":40,"E":41,"F":42,"G":43,"H":44,"I":45,"J":46,"K":47,"L":48,"M":49,"N":50,"O":51,"P":52,"Q":53,"R":54,"S":55,"T":56,"U":57,"V":58,"W":59,"X":60,"Y":61,"Z":62,"[":63,"\\":64,"]":65,"^":66,"_":67,"`":68,"a":69,"b":70,"c":71,"d":72,"e":73,"f":74,"g":75,"h":76,"i":77,"j":78,"k":79,"l":80,"m":81,"n":82,"o":83,"p":84,"q":85,"r":86,"s":87,"t":88,"u":89,"v":90,"w":91,"x":92,"y":93,"z":94,"{":95,"|":96,"}":97,"~":98,"¡":99,"¢":100,"£":101,"¤":102,"¥":103,"¦":104,"§":105,"¨":106,"©":107,"ª":108,"«":109,"¬":110,"®":111,"¯":112,"°":113,"±":114,"²":115,"³":116,"´":117,"µ":118,"¶":119,"·":120,"¸":121,"¹":122,"º":123,"»":124,"¼":125,"½":126,"¾":127,"¿":128,"À":129,"Á":130,"Â":131,"Ã":132,"Ä":133,"Å":134,"Æ":135,"Ç":136,"È":137,"É":138,"Ê":139,"Ë":140,"Ì":141,"Í":142,"Î":143,"Ï":144,"Ð":145,"Ñ":146,"Ò":147,"Ó":148,"Ô":149,"Õ":150,"Ö":151,"×":152,"Ø":153,"Ù":154,"Ú":155,"Û":156,"Ü":157,"Ý":158,"Þ":159,"ß":160,"à":161,"á":162,"â":163,"ã":164,"ä":165,"å":166,"æ":167,"ç":168,"è":169,"é":170,"ê":171,"ë":172,"ì":173,"í":174,"î":175,"ï":176,"ð":177,"ñ":178,"ò":179,"ó":180,"ô":181,"õ":182,"ö":183,"÷":184,"ø":185,"ù":186,"ú":187,"û":188,"ü":189,"ý":190,"þ":191,"ÿ":192,"Ā":193,"ā":194,"Ă":195,"ă":196,"Ą":197,"ą":198,"Ć":199,"ć":200,"Ĉ":201,"ĉ":202,"Ċ":203,"ċ":204,"Č":205,"č":206,"Ď":207,"ď":208,"Đ":209,"đ":210,"Ē":211,"ē":212,"Ĕ":213,"ĕ":214,"Ė":215,"ė":216,"Ę":217,"ę":218,"Ě":219,"ě":220,"Ĝ":221,"ĝ":222,"Ğ":223,"ğ":224,"Ġ":225,"ġ":226,"Ģ":227,"ģ":228,"Ĥ":229,"ĥ":230,"Ħ":231,"ħ":232,"Ĩ":233,"ĩ":234,"Ī":235,"ī":236,"Ĭ":237,"ĭ":238,"Į":239,"į":240,"İ":241,"ı":242,"Ĳ":243,"ĳ":244,"Ĵ":245,"ĵ":246,"Ķ":247,"ķ":248,"ĸ":249,"Ĺ":250,"ĺ":251,"Ļ":252,"ļ":253,"Ľ":254,"ľ":255,"Ŀ":256,"ŀ":257,"Ł":258,"ł":259,"Ń":260,"Ġt":261,"he":262,"Ġa":263,"in":264,"Ġthe":265,"er":266,"on":267,"Ġ,":268,"re":269,"Ġs":270,"ed":271,"Ġo":272,"Ġw":273,"nd":274,"at":275,"Ġ.":276,"or":277,"it":278,"Ġc":279,"en":280,"Ġf":281,"is":282,"es":283,"ar":284,"Ġof":285,"Ġb":286,"an":287,"Ġin":288,"al":289,"ing":290,"Ġp":291,"Ġand":292,"as":293,"čĊ":294,"Ġto":295,"ro":296,"ic":297,"Ġm":298,"Ġd":299,"Ġh":300,"ion":301,"le":302,"ou":303,"ĠT":304,"Ġre":305,"Ġ=":306,"Ġ\"":307,"ĠA":308,"ĠS":309,"ent":310,"il":311,"Ġth":312,"Ġ1":313,"st":314,"ĠC":315,"el":316,"om":317,"Ġl":318,"am":319,"ĠčĊ":320,"Ġe":321,"Ġn":322,"Ġ@":323,"ad":324,"ac":325,"Ġwas":326,"ĠM":327,"ur":328,"ĠThe":329,"ec":330,"Ġon":331,"ly":332,"ĠB":333,"ĠI":334,"Ġg":335,"Ġ'":336,"et":337,"ol":338,"id":339,"iv":340,"im":341,"Ġfor":342,"ir":343,"-@":344,"Ġ@-@":345,"ig":346,"ot":347,"ter":348,"Ġas":349,"ĠH":350,"us":351,"ow":352,"Ġst":353,"ut":354,"ith":355,"ay":356,"Ġ2":357,"ĠP":358,"ation":359,"ver":360,"Ġbe":361,"her":362,"Ġthat":363,"Ġwith":364,"ĠR":365,"ce":366,"th":367,"ĠD":368,"Ġis":369,"un":370,"em":371,"ĠF":372,"Ġwh":373,"ul":374,"Ġby":375,"Ġal":376,"ch":377,"Ġ)":378,"Ġ(":379,"ĠW":380,"Ġcon":381,"ra":382,"ĠG":383,"os":384,"ĠL":385,"ĠN":386,"Ġat":387,"ers":388,"ct":389,"Ġit":390,"Ġ19":391,"rom":392,"and":393,"Ġan":394,"um":395,"est":396,"ĠJ":397,"ag":398,"Ġhe":399,"00":400,"ist":401,"ain":402,"od":403,"av":404,"ri":405,"ĠE":406,"ĠO":407,"Ġfrom":408,"Ġcom":409,"Ġhis":410,"op":411,"Ġpro":412,"res":413,"ies":414,"if":415,"Ġv":416,"ort":417,"ere":418,"ill":419,"ld":420,"Ġde":421,"pp":422,"Ġsu":423,"ore":424,"ĠIn":425,"Ġr":426,"Ġse":427,"Ġwere":428,"ew":429,"ong":430,"igh":431,"ard":432,"ate":433,"all":434,"art":435,"ak":436,"ich":437,"Ġch":438,"Ġor":439,"ab":440,"ant":441,"ud":442,"oc":443,"ber":444,"Ġex":445,"gh":446,"ity":447,"ated":448,"pt":449,"ess":450,"ear":451,"ĠK":452,"Ġpl":453,"ame":454,"qu":455,"ive":456,"rou":457,"Ġare":458,"Ġâ":459,"Ġsh":460,"Ġk":461,"ack":462,"ect":463,"ĠâĢ":464,"ĠU":465,"Ġhad":466,"se":467,"Ġwhich":468,"red":469,"ov":470,"ĠSt":471,"ast":472,"Ġsp":473,"ian":474,"Ġy":475,"ment":476,"Ġle":477,"Ġnot":478,"ge":479,"ord":480,"rit":481,"ip":482,"ine":483,"ell":484,"ally":485,"our":486,"ost":487,"ight":488,"ther":489,"ap":490,"Ġu":491,"ish":492,"ĠCh":493,"oun":494,"ia":495,"Ġ3":496,"ave":497,"ary":498,"ust":499,"og":500,"Ġ200":501,"Ġun":502,"ous":503,"irst":504,"ĠV":505,"cc":506,"Ġinc":507,"Ġ;":508,"Ġcomp":509,"ru":510,"ions":511,"Ġtheir":512,"Ġbut":513,"ide":514,"ure":515,"so":516,"Ġcont":517,"Ġint":518,"fter":519,"ical":520,"ial":521,"Ġar":522,"Ġfirst":523,"ould":524,"Ġits":525,"hed":526,"ĠâĢĵ":527,"Ġwhe":528,"wo":529,"out":530,"ub":531,"Ġ20":532,"ff":533,"Ġ:":534,"ue":535,"Ġher":536,"own":537,"ok":538,"Ġalso":539,"Ġcl":540,"per":541,"ign":542,"ater":543,"ran":544,"orm":545,"ie":546,"ome":547,"ork":548,"ass":549,"ire":550,"end":551,"Ġres":552,"Ġab":553,"Ġad":554,"Ġus":555,"ry":556,"Ġrec":557,"Ġhave":558,"age":559,"ĠHe":560,"Ġ4":561,"Ġro":562,"mer":563,"Ġone":564,"ond":565,"low":566,"Ġhas":567,"ĠTh":568,"du":569,"Ġ5":570,"Ġper":571,"Ġbeen":572,"ime":573,"Ġtwo":574,"ence":575,"land":576,"Ġ18":577,".@":578,"Ġ@.@":579,"ult":580,"ree":581,"ough":582,"ile":583,"Ġwho":584,"ĠAl":585,"Ġsc":586,"uring":587,"pl":588,"ory":589,"ition":590,"ric":591,"ations":592,"Ġdis":593,"Ġthis":594,"Ġbec":595,"Ġapp":596,"iz":597,"ĠIt":598,"are":599,"ach":600,"lud":601,"ade":602,"Ġplay":603,"Ġj":604,"Ġman":605,"act":606,"ely":607,"Ġpart":608,"Ġdes":609,"Ġag":610,"Ġthey":611,"Ġyear":612,"ount":613,"Ġ201":614,"Ġover":615,"Ġother":616,"ound":617,"Ġafter":618,"ib":619,"over":620,"Ġser":621,"Ġen":622,"Ġoff":623,"Ġim":624,"ĠY":625,"ction":626,"ke":627,"ite":628,",@":629,"Ġ@,@":630,"te":631,"urn":632,"Ġinclud":633,"ress":634,"ance":635,"ang":636,"Ġatt":637,"ice":638,"ace":639,"ark":640,"Ġout":641,"wn":642,"ph":643,"ember":644,"Ġpre":645,"Ġup":646,"ens":647,"man":648,"Ġev":649,"Ġtime":650,"nder":651,"rough":652,"ced":653,"Ġfin":654,"Ġinto":655,"one":656,"port":657,"round":658,"we":659,"ren":660,"les":661,"int":662,"ĠOn":663,"vel":664,"Ġcomm":665,"Ġshe":666,"ason":667,"Ġte":668,"amp":669,"Ġwould":670,"Ġmore":671,"ward":672,"Ġ6":673,"ied":674,"ose":675,"rib":676,"ĠUn":677,"Ġall":678,"ings":679,"tern":680,"ces":681,"able":682,"Ġwe":683,"ited":684,"ever":685,"ents":686,"Ġhim":687,"ased":688,"ors":689,"oy":690,"ood":691,"Ġcent":692,"ase":693,"ix":694,"ild":695,"ĠAn":696,"Ġ7":697,"Ġwork":698,"ates":699,"ious":700,"ath":701,"Ġpo":702,"rop":703,"old":704,"als":705,"iss":706,"ey":707,"ict":708,"Ġfe":709,"Ġthem":710,"gan":711,"Ġsec":712,"Ġbet":713,"Ġwhen":714,"Ġsong":715,"Ġrem":716,"ep":717,"form":718,"ail":719,"fer":720,"Ġear":721,"ubl":722,"aw":723,"Ġkn":724,"ake":725,"aus":726,"Ġmost":727,"Ġcons":728,"Ġduring":729,"ĠAs":730,"orth":731,"Ġnew":732,"ered":733,"ilm":734,"ved":735,"att":736,"Ġonly":737,"Ġ9":738,"Ġdec":739,"Ġ8":740,"ick":741,"Ġgame":742,"ons":743,"ug":744,"Ġtr":745,"ft":746,"oth":747,"ook":748,"ĠMar":749,"reat":750,"way":751,"Ġcan":752,"ollow":753,"outh":754,"ween":755,"ĠEn":756,"Ġ199":757,"ters":758,"Ġrel":759,"ind":760,"Ġabout":761,"Ġseason":762,"Ġagain":763,"ral":764,"Ġthree":765,"ational":766,"Ġunder":767,"ular":768,"Ġme":769,"Ġthan":770,"ĠCom":771,"ĠAr":772,"hip":773,"ob":774,"Ġne":775,"Ġbetween":776,"Ġfl":777,"hn":778,"ve":779,"Ġchar":780,"Ġcol":781,"Ġrecord":782,"iew":783,"ron":784,"fore":785,"Ġthrough":786,"ision":787,"orn":788,"Ġ00":789,"ock":790,"Ġver":791,"Ġlater":792,"Ġnum":793,"Ġend":794,"olog":795,"ames":796,"Ġpos":797,"Ġwrit":798,"Ġprodu":799,"Ġwhile":800,"Ġact":801,"Ġrele":802,"Ġfilm":803,"ished":804,"Ġpr":805,"ans":806,"Ġreg":807,"Ġform":808,"Ġass":809,"ĠSe":810,"ury":811,"ted":812,"ts":813,"Ġmade":814,"Ġsub":815,"Ġpe":816,"Ġso":817,"orld":818,"Ġret":819,"ĠNew":820,"Ġspec":821,"Ġacc":822,"Ġqu":823,"Ġwhere":824,"ener":825,"Ġmov":826,"hes":827,"meric":828,"ating":829,"Ġinter":830,"ĠLe":831,"ĠAmeric":832,"Ġra":833,"Ġsome":834,"Ġco":835,"Ġlar":836,"Ġbu":837,"Ġdef":838,"bum":839,"Ġac":840,"Ġmus":841,"Ġfollow":842,"ĠAt":843,"ins":844,"ived":845,"ific":846,"ual":847,"Ġam":848,"Ġsuch":849,"Ġsecond":850,"ike":851,"Ġfour":852,"Ġind":853,"ann":854,"hen":855,"Ġused":856,"ĠRe":857,"ics":858,"lect":859,"Ġday":860,"iel":861,"ily":862,"ĠThis":863,"Ġ0":864,"Ġpubl":865,"Ġcall":866,"ĠJo":867,"ll":868,"Ġalbum":869,"Ġ000":870,"rans":871,"Ġdo":872,"any":873,"Ġbefore":874,"ros":875,"ĠSh":876,"Ġsy":877,"aid":878,"ĠEng":879,"Ġbeing":880,"Ġ10":881,"uc":882,"Ġep":883,"Ġsupp":884,"Ġthere":885,"Ġyears":886,"ars":887,"owever":888,"Ġent":889,"ife":890,"Ġhigh":891,"Ġfound":892,"ird":893,"Ġno":894,"Ġset":895,"ines":896,"iver":897,"io":898,"other":899,"ject":900,"Ġsur":901,"Ġtra":902,"aj":903,"ten":904,"Ġ12":905,"ised":906,"ities":907,"velop":908,"Ġbl":909,"ale":910,"Ġseries":911,"Ġloc":912,"Ġnumber":913,"Ġpres":914,"ane":915,"ause":916,"ode":917,"ek":918,"ton":919,"ĠSc":920,"ier":921,"ise":922,"Ġsever":923,"ince":924,"Ġboth":925,"ank":926,"row":927,"irect":928,"son":929,"Ġthen":930,"ĠBrit":931,"iet":932,"Ġ16":933,"Ġepis":934,"Ġincluding":935,"its":936,"igin":937,"pr":938,"Ġ/":939,"Ġagainst":940,"Ġwell":941,"Ġbecame":942,"Ġexp":943,"Ġknown":944,"Ġtrans":945,"Ġcharac":946,"Ġadd":947,"ĠâĢĶ":948,"ram":949,"Ġback":950,"Ġpop":951,"Ġgo":952,"urch":953,"Ġdesc":954,"Ġsing":955,"ield":956,"Ġperform":957,"ained":958,"Ġrece":959,"ident":960,"Ġem":961,"ert":962,"ures":963,"Ġinv":964,"Ġdep":965,"Ġ198":966,"air":967,"ern":968,"ather":969,"ful":970,"ĠZ":971,"Ġmon":972,"Ġmany":973,"Ġmain":974,"Ġstud":975,"Ġlong":976,"inn":977,"though":978,"up":979,"ool":980,"ĠUnited":981,"led":982,"ement":983,"Ġ15":984,"ower":985,"ĠJohn":986,"Ġop":987,"Ġ11":988,"ined":989,"Ġmet":990,"ober":991,"ley":992,"Ġ17":993,"Ġcentury":994,"Ġteam":995,"Ġest":996,"ĠAfter":997,"yl":998,"Ġmin":999,"uch":1000,"ute":1001,"Ġdevelop":1002,"ĠShe":1003,"iam":1004,"Ġshow":1005,"elf":1006,"Ġrep":1007,"Ġconc":1008,"ative":1009,"Ġcre":1010,"overn":1011,"ared":1012,"Ġ194":1013,"Ġorigin":1014,"Ġsm":1015,"ivers":1016,"az":1017,"Ġlead":1018,"Ġseveral":1019,"ah":1020,"Ġob":1021,"Ġrev":1022,"Ġmill":1023,"erm":1024,"ually":1025,"oot":1026,"Ġbegan":1027,"Ġ196":1028,"ired":1029,"Ġdif":1030,"Ġcontin":1031,"ik":1032,"Ġsign":1033,"ĠInd":1034,"ments":1035,"Ġdirect":1036,"ized":1037,"Ġ197":1038,"au":1039,"Ġext":1040,"ross":1041,"emb":1042,"der":1043,"Ġpol":1044,"Ġmay":1045,"apt":1046,"els":1047,"ĠWh":1048,"Ġcomple":1049,"Ġart":1050,"ĠBr":1051,"ĠIs":1052,"une":1053,"til":1054,"Ġcrit":1055,"Ġhist":1056,"Ġearly":1057,"Ġcould":1058,"ĠCon":1059,"Ġdid":1060,"Ġbel":1061,"Ġcalled":1062,"ued":1063,"Ġnear":1064,"Ġepisode":1065,"yp":1066,"Ġdescrib":1067,"imes":1068,"Ġbro":1069,"roup":1070,"ople":1071,"Ġdown":1072,"Ġrun":1073,"aking":1074,"Ġalong":1075,"Ġdisc":1076,"ccess":1077,"ĠMay":1078,"Ġfeat":1079,"Ġinst":1080,"ĠAmerican":1081,"Ġsaid":1082,"Ġdist":1083,"Ġimp":1084,"Ġinf":1085,"ink":1086,"Ġins":1087,"ty":1088,"Ġthese":1089,"Ġmil":1090,"ven":1091,"ĠGer":1092,"gest":1093,"ium":1094,"enn":1095,"ĠBl":1096,"ĠAust":1097,"Ġresp":1098,"ull":1099,"ruct":1100,"ured":1101,"Ġthough":1102,"Ġship":1103,"ove":1104,"Ġoper":1105,"ĠBritish":1106,"Ã©":1107,"Ġuntil":1108,"Ġprev":1109,"itt":1110,"amed":1111,"Ġcar":1112,"cept":1113,"Ġstart":1114,"Ġcity":1115,"Ġgener":1116,"Ġsame":1117,"ains":1118,"ĠWar":1119,"ists":1120,"ially":1121,"ided":1122,"Ġreleased":1123,"Ġland":1124,"ism":1125,"ĠCar":1126,"Ġown":1127,"Ġwar":1128,"Ġany":1129,"xt":1130,"Ġprov":1131,"Ġreturn":1132,"Ġair":1133,"ĠThey":1134,"erson":1135,"oman":1136,"Ġmusic":1137,"Ġkm":1138,"Ġdesign":1139,"ajor":1140,"ĠPl":1141,"ible":1142,"osed":1143,"Ġsim":1144,"Ġconst":1145,"Ġappear":1146,"Ġmillion":1147,"Ġuse":1148,"Ġbecause":1149,"Ġfam":1150,"ash":1151,"Ġmat":1152,"Ġarea":1153,"Ġ13":1154,"ĠAug":1155,"ĠChr":1156,"ĠAugust":1157,"Ġocc":1158,"Ġph":1159,"Ġopen":1160,"Ġlike":1161,"ony":1162,"Ġsuccess":1163,"ole":1164,"ouse":1165,"erv":1166,"Ġcount":1167,"Ġpass":1168,"oss":1169,"Ġeff":1170,"Ġpeople":1171,"my":1172,"chool":1173,"und":1174,"ĠSp":1175,"stem":1176,"ĠCl":1177,"Ġoffic":1178,"ets":1179,"Ġsix":1180,"uth":1181,"ange":1182,"ues":1183,"Ġ195":1184,"Ġsupport":1185,"Ġaround":1186,"Ġsmall":1187,"ĠCol":1188,"ĠHowever":1189,"ĠSept":1190,"Ġmod":1191,"Ġdam":1192,"Ġ%":1193,"Ġadv":1194,"Ġele":1195,"Ġnorth":1196,"ĠJu":1197,"ales":1198,"Ġhead":1199,"ient":1200,"Ġgovern":1201,"Ġgroup":1202,"raph":1203,"Ġcharacter":1204,"Ġbr":1205,"Ġgr":1206,"Ġed":1207,"Ġeach":1208,"Ġpoint":1209,"ĠSeptember":1210,"ĠAd":1211,"wards":1212,"Ġconsid":1213,"ution":1214,"ĠDe":1215,"ĠGerman":1216,"Ġfollowing":1217,"ĠWorld":1218,"Ġlife":1219,"Ġgu":1220,"ĠComm":1221,"ĠAll":1222,"ĠAustral":1223,"anc":1224,"Ġann":1225,"Ġcontro":1226,"ural":1227,"Ġfive":1228,"Ġvar":1229,"ys":1230,"ĠHer":1231,"ĠUS":1232,"Ġattack":1233,"ged":1234,"Ġ193":1235,"ording":1236,"Ġwill":1237,"Ġresult":1238,"ina":1239,"ck":1240,"ĠQ":1241,"Ġever":1242,"ĠPro":1243,"Ġ191":1244,"ĠEu":1245,"Ġlarge":1246,"ĠMe":1247,"ĠII":1248,"lish":1249,"ĠNorth":1250,"ling":1251,"Ġbook":1252,"Ġreport":1253,"ont":1254,"ague":1255,"ĠFran":1256,"ble":1257,"ĠFor":1258,"ox":1259,"aced":1260,"hel":1261,"ĠJune":1262,"Ġtit":1263,"ended":1264,"dom":1265,"ilt":1266,"ives":1267,"Ġ14":1268,"ats":1269,"Ġprom":1270,"eb":1271,"med":1272,"Ġweek":1273,"ately":1274,"aving":1275,"ored":1276,"Ġstr":1277,"ĠJan":1278,"Ġsince":1279,"ĠStates":1280,"Ġfinal":1281,"Ġmajor":1282,"ax":1283,"Ġsouth":1284,"Ġreceived":1285,"ĠSouth":1286,"ivision":1287,"ĠGu":1288,"Ġname":1289,"Ġpartic":1290,"ery":1291,"Ġhel":1292,"ology":1293,"ption":1294,"ĠChrist":1295,"Ġcare":1296,"ĠOct":1297,"Ġpublic":1298,"Ġrest":1299,"Ġsystem":1300,"ected":1301,"ility":1302,"ĠBe":1303,"ting":1304,"ĠKing":1305,"Ġstate":1306,"Ġbatt":1307,"ae":1308,"Ġwhat":1309,"ages":1310,"uary":1311,"Ġlast":1312,"rand":1313,"Ġdescribed":1314,"ĠOctober":1315,"Ġline":1316,"Ġclass":1317,"Ġ$":1318,"Ġdet":1319,"iving":1320,"raft":1321,"ĠNov":1322,"Ġplayed":1323,"Ġprot":1324,"Ġincre":1325,"aur":1326,"ropical":1327,"Ġtook":1328,"Ġmar":1329,"Ġnow":1330,"ified":1331,"aim":1332,"ĠPar":1333,"ional":1334,"get":1335,"rote":1336,"ants":1337,"ody":1338,"Ġ[":1339,"Ġ]":1340,"ively":1341,"ĠYork":1342,"Ġbuild":1343,"Ġworld":1344,"..":1345,"Ġlate":1346,"ĠDec":1347,"yc":1348,"Ġ25":1349,"ĠJuly":1350,"Ġwrote":1351,"empt":1352,"ball":1353,"by":1354,"esp":1355,"ĠEurop":1356,"ret":1357,"Ġwon":1358,"app":1359,"ideo":1360,"Ġspecies":1361,"sion":1362,"Ġchild":1363,"ians":1364,"Ġ...":1365,"omet":1366,"iod":1367,"Ġport":1368,"Ġmuch":1369,"ĠCan":1370,"ĠDuring":1371,"Ġconf":1372,"Ġserv":1373,"Ġcamp":1374,"ection":1375,"Ġref":1376,"arn":1377,"Ġdue":1378,"ech":1379,"Ġshort":1380,"Ġallow":1381,"Ġsingle":1382,"ĠApr":1383,"ĠApril":1384,"Ġdiffer":1385,"Ġjust":1386,"Ġdeath":1387,"ically":1388,"ract":1389,"Ġstar":1390,"Ġsl":1391,"Ġgun":1392,"ission":1393,"omin":1394,"ital":1395,"ĠMc":1396,"ĠAnd":1397,"Ġanother":1398,"Ġincluded":1399,"ĠMus":1400,"Ġposs":1401,"ai":1402,"Ġold":1403,"Ġtri":1404,"ham":1405,"Ġstorm":1406,"ĠGe":1407,"Ġvis":1408,"ĠJanuary":1409,"Ġ30":1410,"Ġlist":1411,"Ġleft":1412,"Ġeven":1413,"Ġpar":1414,"Ġwithin":1415,"ĠEngland":1416,"ple":1417,"Ġprog":1418,"Ġappro":1419,"ger":1420,"itions":1421,"Ġnamed":1422,"ops":1423,"Ġbased":1424,"Ġestab":1425,"Ġif":1426,"inc":1427,"Ġalthough":1428,"Ġattempt":1429,"Ġtop":1430,"ilar":1431,"Ġtrack":1432,"Ġvery":1433,"Ġbelie":1434,"Ġbre":1435,"Ġthird":1436,"ards":1437,"Ġhum":1438,"Ġwater":1439,"ĠMarch":1440,"ene":1441,"Ġgames":1442,"Ġorgan":1443,"ched":1444,"orp":1445,"ently":1446,"Ġbeg":1447,"Ġpower":1448,"Ġevent":1449,"Ġprevious":1450,"Ġfamily":1451,"Ġschool":1452,"ms":1453,"Ġbest":1454,"urric":1455,"ulation":1456,"ĠNovember":1457,"ances":1458,"Ġperiod":1459,"Ġreview":1460,"Ġway":1461,"ĠHis":1462,"Ġmen":1463,"aster":1464,"Ġexpl":1465,"Ġhome":1466,"ĠEurope":1467,"Ġfur":1468,"que":1469,"Ġgovernment":1470,"Ġtyp":1471,"ĠBy":1472,"ĠPh":1473,"ience":1474,"Ġturn":1475,"Ġ192":1476,"ĠDecember":1477,"let":1478,"ature":1479,"Ġcap":1480,"Ġthose":1481,"Ġhand":1482,"ĠThere":1483,"avy":1484,"Ġplace":1485,"ached":1486,"Ġmed":1487,"hest":1488,"ĠCity":1489,"Ġstory":1490,"oint":1491,"aged":1492,"Ġbuilt":1493,"eder":1494,"amb":1495,"Ġgreat":1496,"ense":1497,"Ġdr":1498,"ences":1499,"Ġperson":1500,"iven":1501,"Ġcommand":1502,"Ġ100":1503,"Ġkill":1504,"ĠFl":1505,"ĠWhen":1506,"oci":1507,"Ġmonth":1508,"Ġsent":1509,"itary":1510,"elt":1511,"Ġopp":1512,"Ġmake":1513,"Ġoriginal":1514,"iversity":1515,"oad":1516,"ĠÂ":1517,"Ġhal":1518,"Ġrequ":1519,"ves":1520,"ides":1521,"ĠPr":1522,"ĠNational":1523,"Ġeng":1524,"gy":1525,"ness":1526,"ention":1527,"Ġ2009":1528,"ĠOr":1529,"Ġ2010":1530,"Ġauth":1531,"Ġvideo":1532,"Ġ2008":1533,"bs":1534,"Ġant":1535,"ison":1536,"Ġmark":1537,"Ġdem":1538,"Ġsug":1539,"ruction":1540,"akes":1541,"Ġpresent":1542,"line":1543,"Ġleg":1544,"Ġclub":1545,"ĠMan":1546,"ĠRiver":1547,"rench":1548,"ival":1549,"Ġview":1550,"ĠBro":1551,"riend":1552,"oard":1553,"Ġrepl":1554,"ograph":1555,"Ġcapt":1556,"alk":1557,"Ġstill":1558,"Ġmoved":1559,"Ġlocal":1560,"Ġstand":1561,"eng":1562,"Ġled":1563,"Ġrole":1564,"ott":1565,"aining":1566,"ler":1567,"Ġterm":1568,"Ġcame":1569,"aken":1570,"Ġdest":1571,"Ġiss":1572,"ories":1573,"ung":1574,"side":1575,"idge":1576,"mp":1577,"Ġdra":1578,"Ġoften":1579,"Ġcommon":1580,"Ġaddition":1581,"Ġhistory":1582,"urricane":1583,"Ġcaus":1584,"lev":1585,"sh":1586,"ĠComp":1587,"atter":1588,"Ġtrad":1589,"rew":1590,"Ġfew":1591,"ĠNo":1592,"ĠWe":1593,"ĠChar":1594,"Ġsuggest":1595,"lu":1596,"read":1597,"ister":1598,"ĠAb":1599,"Ġ2007":1600,"Ġnext":1601,"Ġeffect":1602,"Ġconsidered":1603,"Ġbas":1604,"Ġdeb":1605,"Ġplayer":1606,"ĠOne":1607,"ior":1608,"Ġcour":1609,"astern":1610,"Ġmid":1611,"ĠTr":1612,"ĠEnglish":1613,"Ġhelp":1614,"ead":1615,"Ġexper":1616,"uted":1617,"ĠFrench":1618,"Ġcareer":1619,"Ġside":1620,"Ġsimilar":1621,"Ġrecorded":1622,"ĠBatt":1623,"ays":1624,"Ġright":1625,"ĠX":1626,"Ġwin":1627,"Ġinit":1628,"Ġimport":1629,"ĠAcc":1630,"Ġreal":1631,"self":1632,"ĠRec":1633,"Ġclaim":1634,"ining":1635,"Ġcover":1636,"Ġarch":1637,"Ġcompany":1638,"be":1639,"Ġtown":1640,"Ġpublished":1641,"Ġsold":1642,"Ġcontinued":1643,"Ġrefer":1644,"Ġexc":1645,"Ġwind":1646,"Ġdifferent":1647,"Ġyou":1648,"Ġtake":1649,"Ġwithout":1650,"ternational":1651,"Ġsongs":1652,"ĠWith":1653,"yn":1654,"Ġtot":1655,"ĠPer":1656,"ĠPort":1657,"Ġroad":1658,"Ġformer":1659,"Ġ21":1660,"Ġpolit":1661,"Ġtw":1662,"Ġtem":1663,"ĠBar":1664,"Ġheld":1665,"ches":1666,"ĠTe":1667,"Ġmemb":1668,"Ġamong":1669,"Ġlevel":1670,"Ġel":1671,"ĠWill":1672,"ning":1673,"Ġfield":1674,"Ġmag":1675,"par":1676,"Ġelect":1677,"ner":1678,"iment":1679,"Ġav":1680,"itar":1681,"Ġdel":1682,"uss":1683,"Ġprop":1684,"Ġwritten":1685,"inning":1686,"iter":1687,"resent":1688,"Ġevery":1689,"ĠAm":1690,"ĠState":1691,"estern":1692,"Ġ23":1693,"ĠEar":1694,"Ġcommun":1695,"Ġhalf":1696,"lear":1697,"yle":1698,"ĠDivision":1699,"ampions":1700,"Ġ2011":1701,"Ġrelease":1702,"ried":1703,"Ġfurther":1704,"ots":1705,"Ġbecome":1706,"Ġwest":1707,"Ġ2006":1708,"ensive":1709,"ĠAccording":1710,"Ġcr":1711,"enc":1712,"rodu":1713,"Ġchurch":1714,"ĠAlthough":1715,"Ġstrong":1716,"Ġfore":1717,"Ġhowever":1718,"Ġdays":1719,"roy":1720,"Ġfind":1721,"ĠCanad":1722,"Ġcur":1723,"ices":1724,"Ġeast":1725,"ising":1726,"ĠCount":1727,"Ġversion":1728,"Ġfoot":1729,"Ġbeh":1730,"Ġspe":1731,"augh":1732,"Ġparticular":1733,"ering":1734,"Ġ&":1735,"Ġmy":1736,"Ġlow":1737,"ĠChurch":1738,"ize":1739,"ebru":1740,"ĠGener":1741,"Ġprof":1742,"Ġcompet":1743,"Ġposition":1744,"Ġtitle":1745,"Ġ24":1746,"ĠWest":1747,"Ġmilitary":1748,"ĠRoman":1749,"Ġconv":1750,"Ġauthor":1751,"Ġ22":1752,"Ġ26":1753,"Ġappe":1754,"reen":1755,"Ġorder":1756,"ĠLeague":1757,"outher":1758,"Ġsol":1759,"ront":1760,"ittle":1761,"Ġcontrol":1762,"outhern":1763,"Ġtimes":1764,"ĠSong":1765,"aces":1766,"fric":1767,"Ġband":1768,"ĠFebru":1769,"ĠFebruary":1770,"Ġfre":1771,"pped":1772,"Ġless":1773,"Ġgave":1774,"Ġproject":1775,"Ġvict":1776,"Ġdefe":1777,"ylan":1778,"ĠGeor":1779,"osp":1780,"ĠAss":1781,"Ġ!":1782,"ĠDylan":1783,"Ġchang":1784,"Ġreported":1785,"Ġmembers":1786,"Ġnort":1787,"ĠPark":1788,"rick":1789,"Ġnov":1790,"Ġproduced":1791,"Ġstat":1792,"levision":1793,"Ġtotal":1794,"isc":1795,"arm":1796,"eter":1797,"hern":1798,"Ġ2012":1799,"aying":1800,"ĠOld":1801,"Ġarr":1802,"iety":1803,"Ġcult":1804,"Ġpopular":1805,"Ġter":1806,"Ġfire":1807,"esc":1808,"oung":1809,"ailed":1810,"Ġproduction":1811,"urs":1812,"apan":1813,"Ġobs":1814,"Ġtropical":1815,"hem":1816,"ĠSim":1817,"Ġ28":1818,"ĠPol":1819,"ression":1820,"Ġpost":1821,"Ġforces":1822,"ĠSte":1823,"Ġcritic":1824,"ford":1825,"ĠHa":1826,"ĠJapan":1827,"Ġchildren":1828,"Ġhistor":1829,"Ġpat":1830,"Ġhaving":1831,"ush":1832,"ĠEd":1833,"Ġinclude":1834,"ald":1835,"echn":1836,"ring":1837,"ours":1838,"Ġsurv":1839,"Ġinvol":1840,"Ġinflu":1841,"alion":1842,"ne":1843,"Ġsk":1844,"Ġlost":1845,"rent":1846,"Ġaff":1847,"atic":1848,"ĠSu":1849,"Ġgiven":1850,"Ġcountry":1851,"Ġwant":1852,"ably":1853,"Ġrepresent":1854,"work":1855,"ĠEl":1856,"Ġsignific":1857,"ĠCent":1858,"omen":1859,"ĠDav":1860,"Ġmanag":1861,"ope":1862,"ploy":1863,"ĠGeneral":1864,"Ġpress":1865,"Ġequ":1866,"vers":1867,"Ġ2013":1868,"ges":1869,"Ġeight":1870,"ĠMiss":1871,"Ġcomb":1872,"reet":1873,"Ġsit":1874,"Ġsite":1875,"ades":1876,"Ġseen":1877,"sp":1878,"irc":1879,"Ġprogram":1880,"ones":1881,"oon":1882,"Ġmaking":1883,"ĠAfric":1884,"Ġnever":1885,"Ġmatch":1886,"ration":1887,"Ġfem":1888,"Ġstated":1889,"Ġestabl":1890,"Ã¡":1891,"ither":1892,"Ġbody":1893,"Ġplan":1894,"Ġfact":1895,"Ġread":1896,"Ġord":1897,"Ġshould":1898,"ĠWhile":1899,"ĠEv":1900,"sequ":1901,"Ġ50":1902,"Ġreturned":1903,"fic":1904,"ator":1905,"ĠUniversity":1906,"ological":1907,"Ġsoc":1908,"Ġft":1909,"aun":1910,"Ġer":1911,"Ġsound":1912,"Ġ190":1913,"Äģ":1914,"rem":1915,"Ġhow":1916,"ape":1917,"ĠThese":1918,"Ġgen":1919,"Ġisland":1920,"ĠNe":1921,"ĠAmerica":1922,"Ġcou":1923,"Ġstruct":1924,"Ġearl":1925,"Ġships":1926,"Ġannoun":1927,"Ġestablished":1928,"ampionship":1929,"Ġgod":1930,"Ġground":1931,"ĠJack":1932,"Ġchart":1933,"Ġpopulation":1934,"aff":1935,"ream":1936,"Ġcat":1937,"Ġdiv":1938,"Ġreached":1939,"Ġjo":1940,"ground":1941,"Ġ27":1942,"na":1943,"view":1944,"reland":1945,"Ġlight":1946,"Ġnoted":1947,"aul":1948,"ki":1949,"Ġaway":1950,"Ġfriend":1951,"ĠIreland":1952,"ĠBlack":1953,"ille":1954,"igade":1955,"used":1956,"ument":1957,"ination":1958,"ffic":1959,"ese":1960,"Ġlim":1961,"oll":1962,"Ġthroughout":1963,"Ġacross":1964,"ĠReg":1965,"Ġdeveloped":1966,"Ġthought":1967,"iec":1968,"ĠMich":1969,"ĠLond":1970,"Ġseven":1971,"Ġsomet":1972,"Ġcast":1973,"aint":1974,"ords":1975,"ster":1976,"Ġgl":1977,"Ġproc":1978,"ĠWilliam":1979,"ĠLondon":1980,"Ġpra":1981,"Ġrad":1982,"Ġintrodu":1983,"af":1984,"Ġgood":1985,"ĠFeder":1986,"Ġusing":1987,"Ġhimself":1988,"Ġdevelopment":1989,"Ġblack":1990,"iness":1991,"omb":1992,"Ġhig":1993,"ĠHar":1994,"Ġfelt":1995,"idence":1996,"reek":1997,"ĠAustralia":1998,"Ġhuman":1999,"Ġsignificant":2000,"Ġide":2001,"ĠAir":2002,"utes":2003,"aren":2004,"Ġwat":2005,"Ġperformed":2006,"Ġbar":2007,"ump":2008,"Ġimportant":2009,"most":2010,"ivil":2011,"ĠGl":2012,"Ġadm":2013,"ĠAtl":2014,"itive":2015,"Ġnight":2016,"Ġwriting":2017,"Ġfun":2018,"ĠPal":2019,"ĠRich":2020,"ĠEx":2021,"Ġdestroy":2022,"Ġfather":2023,"ĠMag":2024,"Ġmiles":2025,"Ġbo":2026,"antic":2027,"Ġtelevision":2028,"ĠRoy":2029,"Ġinterest":2030,"Ġvarious":2031,"osaur":2032,"Ġareas":2033,"ief":2034,"Ġtour":2035,"imately":2036,"Ġwhite":2037,"Ġmodern":2038,"Ġfull":2039,"field":2040,"Ġten":2041,"Ġdied":2042,"ĠCal":2043,"Ġlook":2044,"rie":2045,"ogn":2046,"Ġenc":2047,"Ġactiv":2048,"ael":2049,"aign":2050,"Ġwent":2051,"Ġlaw":2052,"ĠRober":2053,"Ġneed":2054,"Ġtro":2055,"Ġevents":2056,"Ġprim":2057,"Ġdoes":2058,"Ġsuccessful":2059,"ĠRoad":2060,"ico":2061,"Ġred":2062,"ization":2063,"Ġdiscover":2064,"Ġplayers":2065,"Ġstarted":2066,"Ġmm":2067,"ĠTo":2068,"rab":2069,"ĠJames":2070,"Ġdecl":2071,"con":2072,"reg":2073,"Ġball":2074,"ript":2075,"Ġsee":2076,"iting":2077,"Ġhouse":2078,"Ġfeet":2079,"Ġformed":2080,"ks":2081,"Ġwid":2082,"ourn":2083,"Ġpoem":2084,"Ġtechn":2085,"Ġmix":2086,"Ġrange":2087,"ĠMount":2088,"Ġsett":2089,"Ġperformance":2090,"ĠCounty":2091,"rest":2092,"Ġput":2093,"Ġstyle":2094,"Ġvill":2095,"Ġrelations":2096,"Ġbuilding":2097,"Ġage":2098,"Ġsum":2099,"Ġtoo":2100,"Ġforce":2101,"abor":2102,"Ġcaused":2103,"ÃŃ":2104,"ana":2105,"Ġke":2106,"ino":2107,"ĠYou":2108,"epend":2109,"ara":2110,"alth":2111,"ĠKe":2112,"ublic":2113,"Ġsw":2114,"ened":2115,"ĠCro":2116,"Ġnovel":2117,"Ġpri":2118,"iers":2119,"isted":2120,"Ġ189":2121,"Ġcreated":2122,"Ġofficial":2123,"day":2124,"fall":2125,"idd":2126,"elling":2127,"asing":2128,"ĠSom":2129,"Ġ2004":2130,"ĠAng":2131,"ym":2132,"Ġpit":2133,"Ġ2005":2134,"Ġrelig":2135,"Ġentire":2136,"gr":2137,"less":2138,"Ġson":2139,"ality":2140,"eth":2141,"ĠOl":2142,"Ġable":2143,"Ġcoast":2144,"Ġpolitical":2145,"ĠHigh":2146,"ries":2147,"ressed":2148,"Ġcharacters":2149,"ĠSec":2150,"Ġste":2151,"inal":2152,"Ġget":2153,"ĠHam":2154,"Ġothers":2155,"Ġconstruction":2156,"Ġcert":2157,"Ġbird":2158,"Ġpred":2159,"Ġpromot":2160,"ases":2161,"Ġbattle":2162,"br":2163,"ĠTown":2164,"Ġnational":2165,"ways":2166,"acy":2167,"Ġoccur":2168,"oming":2169,"Ġval":2170,"ĠâĢĻ":2171,"ample":2172,"Ġfig":2173,"ĠSw":2174,"Ġlik":2175,"ament":2176,"Ġonce":2177,"ĠHist":2178,"play":2179,"ficult":2180,"Ġfac":2181,"Ġremained":2182,"por":2183,"ĠCare":2184,"ĠBra":2185,"Ġlocated":2186,"Ġmount":2187,"Ġtradition":2188,"enth":2189,"ivid":2190,"Ġrock":2191,"Ġscored":2192,"Ġworks":2193,"Ġdifficult":2194,"ĠKingdom":2195,"craft":2196,"Ġredu":2197,"Ġ31":2198,"Ġproduc":2199,"lected":2200,"ĠIsland":2201,"Ġcampaign":2202,"Ġguns":2203,"Ġtre":2204,"Ġcross":2205,"ĠCup":2206,"ĠMon":2207,"Ġstars":2208,"ĠGrand":2209,"Ġmeet":2210,"Ġcompleted":2211,"ĠAustralian":2212,"Ġannounced":2213,"Ġrank":2214,"Ġregion":2215,"Ġhold":2216,"ett":2217,"Ġsqu":2218,"orse":2219,"Ġnuc":2220,"ounc":2221,"off":2222,"itted":2223,"Ġgrow":2224,"Ġsuper":2225,"Ġcolle":2226,"Ġgoal":2227,"ĠCompany":2228,"ique":2229,"oid":2230,"Ġfav":2231,"arch":2232,"Ġlittle":2233,"Ġconn":2234,"umb":2235,"Ġlet":2236,"Ġprocess":2237,"ray":2238,"enced":2239,"Ġfight":2240,"Ġfront":2241,"aly":2242,"omp":2243,"rought":2244,"Ġinstead":2245,"ĠAct":2246,"ky":2247,"Ġcirc":2248,"Ġ29":2249,"Ġadded":2250,"here":2251,"leet":2252,"ĠMor":2253,"Ġcond":2254,"omm":2255,"Ġleast":2256,"duct":2257,"Ġfollowed":2258,"ĠBill":2259,"Ġknow":2260,"Ġpeak":2261,"Ġappeared":2262,"Ġborn":2263,"angu":2264,"Ġkilled":2265,"Ġsouthern":2266,"Ġoriginally":2267,"Ġmonths":2268,"oice":2269,"Ġwife":2270,"urb":2271,"Ġcomment":2272,"ĠArmy":2273,"Ġstri":2274,"ĠDavid":2275,"mar":2276,"Ġfif":2277,"Ġmother":2278,"Ġloss":2279,"ota":2280,"Ġ40":2281,"Ġstudy":2282,"ius":2283,"Ġhurricane":2284,"Ġassoci":2285,"Ġwomen":2286,"Ġcell":2287,"ects":2288,"ĠMusic":2289,"Ġident":2290,"Ġmass":2291,"ston":2292,"Ġeastern":2293,"Ġnon":2294,"Ġsex":2295,"antry":2296,"Ġagre":2297,"Ġrelationship":2298,"Ġaud":2299,"Ġaward":2300,"Ġ2003":2301,"Ġcritics":2302,"Ġbroad":2303,"ycl":2304,"Ġanim":2305,"Ġ185":2306,"Ġeventually":2307,"Ġfeatures":2308,"Ġprofess":2309,"olution":2310,"ĠGod":2311,"ĠOther":2312,"Ġvoc":2313,"Ġyoung":2314,"aper":2315,"Ġrecogn":2316,"Ġ2015":2317,"gin":2318,"ata":2319,"Ġbus":2320,"Ġlive":2321,"ements":2322,"ully":2323,"ĠFrance":2324,"Ġaver":2325,"Ġfourth":2326,"Ġtaken":2327,"ĠSer":2328,"emy":2329,"Ġroute":2330,"Ġestim":2331,"cher":2332,"ĠTwo":2333,"ĠBer":2334,"Ġserved":2335,"liam":2336,"ores":2337,"istic":2338,"ask":2339,"Ġcommer":2340,"Ġprote":2341,"illa":2342,"Ġappoint":2343,"ography":2344,"ze":2345,"ĠCo":2346,"omes":2347,"Ġlack":2348,"chie":2349,"Ġdecided":2350,"Ġdamage":2351,"ama":2352,"ĠMad":2353,"unk":2354,"Ġheavy":2355,"igned":2356,"azine":2357,"Ġcor":2358,"Ġbase":2359,"Ġeither":2360,"ĠIm":2361,"Ġimpro":2362,"ĠBattalion":2363,"iation":2364,"Ġfar":2365,"Ġcondom":2366,"Ġproble":2367,"Ġsepar":2368,"Ġarm":2369,"Ġinsp":2370,"val":2371,"ĠPart":2372,"ought":2373,"Ġspecial":2374,"Ġbehind":2375,"ĠRobert":2376,"Ġtoget":2377,"ica":2378,"ecut":2379,"ĠLove":2380,"Ġcoll":2381,"Ġindivid":2382,"Ġbelieved":2383,"Ġtogether":2384,"ida":2385,"Ġarg":2386,"Ġquar":2387,"ency":2388,"liament":2389,"ipp":2390,"aves":2391,"Ġclos":2392,"iction":2393,"ouncil":2394,"cial":2395,"Ġmater":2396,"rict":2397,"Ġplaying":2398,"ĠRoyal":2399,"ĠCarey":2400,"Ġburn":2401,"Ġdou":2402,"ĠRed":2403,"rap":2404,"aching":2405,"iol":2406,"iber":2407,"Ġlangu":2408,"ĠMed":2409,"Ġmove":2410,"Ġir":2411,"Ġround":2412,"Ġcreat":2413,"Ġbi":2414,"ĠHen":2415,"ĠDu":2416,"Ġvol":2417,"Ġdev":2418,"Ġexample":2419,"Ġclose":2420,"Ġaccept":2421,"ĠMex":2422,"gg":2423,"ĠSome":2424,"ĠMin":2425,"Ġalmost":2426,"Ġ188":2427,"alt":2428,"ests":2429,"Ġservice":2430,"Ġleading":2431,"ĠEuropean":2432,"Ġsour":2433,"Ġfall":2434,"ĠRep":2435,"odes":2436,"ĠWhite":2437,"Ġgenerally":2438,"ĠFederer":2439,"Ġsaw":2440,"ators":2441,"Ġce":2442,"Ġtowards":2443,"Ġopened":2444,"Ġelements":2445,"eal":2446,"Ġmiss":2447,"Ġ35":2448,"uter":2449,"oring":2450,"Ġbrought":2451,"ĠBrigade":2452,"Ġgeneral":2453,"Ġweeks":2454,"Ġmot":2455,"ĠPres":2456,"ceed":2457,"ĠWales":2458,"ĠGame":2459,"ĠInternational":2460,"Ġfinished":2461,"Ġdraw":2462,"Ġz":2463,"stit":2464,"Ġlaun":2465,"ĠFlor":2466,"Ġwall":2467,"Ġhost":2468,"oph":2469,"ĠKh":2470,"ĠViet":2471,"Ġregular":2472,"Ġhighway":2473,"Ġfeatured":2474,"cast":2475,"ĠIr":2476,"Ġcentral":2477,"Ġaircraft":2478,"lement":2479,"irl":2480,"ending":2481,"Ġindust":2482,"board":2483,"ĠEast":2484,"ordan":2485,"ounter":2486,"Ġresear":2487,"Ġreb":2488,"etwork":2489,"Ġcontract":2490,"Ġpoints":2491,"eum":2492,"Ġfund":2493,"Ġinform":2494,"Ġdirected":2495,"Ġ-":2496,"Ġaction":2497,"Ġmi":2498,"ĠMo":2499,"orts":2500,"Ġsuff":2501,"ĠChampionship":2502,"Ġmeas":2503,"Ġdirector":2504,"Ġprovided":2505,"hing":2506,"Ġcut":2507,"icated":2508,"Ġren":2509,"ĠBo":2510,"ĠFollow":2511,"ude":2512,"wood":2513,"Ġflood":2514,"Ġrespect":2515,"Ġnar":2516,"ĠJordan":2517,"Ġsequ":2518,"Ġupon":2519,"Ġmean":2520,"ential":2521,"ĠFrom":2522,"ĠGal":2523,"Ġappearance":2524,"ned":2525,"ĠJew":2526,"Ġyard":2527,"ellow":2528,"Ġ186":2529,"Ġearlier":2530,"sel":2531,"ying":2532,"atin":2533,"ĠPe":2534,"ĠRock":2535,"ĠEm":2536,"Ġking":2537,"Ġcost":2538,"ĠCr":2539,"Ġrather":2540,"ights":2541,"Ġ2014":2542,"Ġsubsequ":2543,"Ġfemale":2544,"ĠAtlantic":2545,"Ġtroops":2546,"tt":2547,"ĠÃ":2548,"Ġill":2549,"Ġreve":2550,"Ġstru":2551,"ĠOd":2552,"ishing":2553,"medi":2554,"ĠChristian":2555,"Ġcurrent":2556,"ĠMary":2557,"ĠOp":2558,"Ġve":2559,"Ġriver":2560,"Ġlargest":2561,"Ġtravel":2562,"Ġvictory":2563,"ĠFollowing":2564,"ĠHouse":2565,"ander":2566,"Ġemploy":2567,"Ġoperations":2568,"ĠHero":2569,"Ġparticularly":2570,"ĠGeorge":2571,"Ġmanager":2572,"Ġachie":2573,"erous":2574,"ouri":2575,"Ġprob":2576,"ule":2577,"Ġfort":2578,"Ġopening":2579,"Ġwanted":2580,"ving":2581,"Ġcop":2582,"Ġbur":2583,"Ġ500":2584,"ength":2585,"Ġnorthern":2586,"ault":2587,"ĠMac":2588,"ids":2589,"osition":2590,"Ġexist":2591,"Ġyards":2592,"Ġevidence":2593,"ĠPlay":2594,"áĥ":2595,"ita":2596,"Ġfoc":2597,"Ġreason":2598,"ĠSl":2599,"eler":2600,"Ġconduct":2601,"ĠPhil":2602,"ĠFlorida":2603,"ee":2604,"ih":2605,"of":2606,"yd":2607,"head":2608,"Ġmember":2609,"ĠWal":2610,"reng":2611,"Ġpract":2612,"uck":2613,"vest":2614,"Ġsaying":2615,"oms":2616,"ĠBay":2617,"ĠWil":2618,"anding":2619,"ĠStreet":2620,"Ġoutside":2621,"Ġcrew":2622,"Ġallowed":2623,"Ġpossible":2624,"Ġengine":2625,"co":2626,"west":2627,"atural":2628,"ĠMost":2629,"ĠPaul":2630,"Ġaccount":2631,"ĠOliv":2632,"uel":2633,"Ġpast":2634,"Ġmer":2635,"ĠMark":2636,"irth":2637,"Ġstage":2638,"Ġneg":2639,"ĠMcC":2640,"Ġcase":2641,"Ġhours":2642,"Ġwhom":2643,"Ġrespons":2644,"conom":2645,"ington":2646,"ago":2647,"artment":2648,"ĠMissouri":2649,"Ġmaterial":2650,"bor":2651,"Ġfree":2652,"ills":2653,"Ġ2001":2654,"Ġdesp":2655,"Ġworked":2656,"Ġregard":2657,"Ġmach":2658,"Ġlength":2659,"Ġnec":2660,"ĠBut":2661,"Ġgre":2662,"Ġstreng":2663,"Ġobject":2664,"Ġterrit":2665,"ĠTech":2666,"Ġgold":2667,"Ġplann":2668,"aps":2669,"Ġworking":2670,"Ġnomin":2671,"vert":2672,"ems":2673,"lus":2674,"ville":2675,"aries":2676,"ĠSan":2677,"Ġlove":2678,"Ġrul":2679,"Ġpoor":2680,"Ġquick":2681,"Ġdesigned":2682,"cent":2683,"now":2684,"uk":2685,"ari":2686,"Ġlearn":2687,"ĠVir":2688,"ĠQu":2689,"Ġfootball":2690,"onst":2691,"Ġmult":2692,"Ġhon":2693,"urt":2694,"ĠBus":2695,"ĠIndian":2696,"Ġconstruct":2697,"Ġpraised":2698,"ps":2699,"Ġesc":2700,"Ġtreat":2701,"ĠTor":2702,"ĠBest":2703,"Ġforced":2704,"Ġstation":2705,"ĠDay":2706,"ĠFirst":2707,"ession":2708,"Ġremains":2709,"Ġavail":2710,"rated":2711,"ites":2712,"iding":2713,"Ġviol":2714,"ĠVal":2715,"Ġ187":2716,"Ġgoals":2717,"Ġ1970":2718,"ĠMichael":2719,"uation":2720,"Ġthink":2721,"gypt":2722,"Ġwinds":2723,"heast":2724,"Ġcivil":2725,"ĠSm":2726,"ĠSqu":2727,"Ġabove":2728,"Ġdiss":2729,"Ġinvest":2730,"Ġincreased":2731,"Ġpers":2732,"ĠHel":2733,"ĠFe":2734,"ĠEgypt":2735,"hens":2736,"Ġpreviously":2737,"ĠÂ£":2738,"wh":2739,"itz":2740,"ĠDesp":2741,"ula":2742,"pper":2743,"ĠThom":2744,"Ġsoon":2745,"Ġreplaced":2746,"Ġcommercial":2747,"asion":2748,"ributed":2749,"ĠRichard":2750,"BC":2751,"gl":2752,"erved":2753,"Ġmust":2754,"ĠAc":2755,"ĠAg":2756,"ĠApp":2757,"Ġask":2758,"ĠGr":2759,"Ġinterview":2760,"Ġmaint":2761,"ĠSuper":2762,"Ġbusiness":2763,"onc":2764,"Ġclear":2765,"Ġpain":2766,"ste":2767,"olic":2768,"ĠWhe":2769,"ription":2770,"ĠDespite":2771,"ĠCorp":2772,"Ġly":2773,"ĠDep":2774,"osing":2775,"abit":2776,"Ġwriter":2777,"ĠQue":2778,"ĠBrown":2779,"Ġquarter":2780,"ming":2781,"Ġtrib":2782,"Ġthreat":2783,"ĠMont":2784,"Ġ2000":2785,"Ġunc":2786,"ĠÂ°":2787,"ĠHenry":2788,"AF":2789,"atory":2790,"ania":2791,"Ġmph":2792,"ĠOs":2793,"Ġunits":2794,"oney":2795,"ĠCanada":2796,"Ġestimated":2797,"Ã³":2798,"Ġpen":2799,"ulf":2800,"iff":2801,"aker":2802,"ibility":2803,"Ġ1990":2804,"Ġspecific":2805,"Ġcourt":2806,"ĠOldham":2807,"face":2808,"Ġpur":2809,"Ġreact":2810,"acing":2811,"Ġ36":2812,"Ġclaimed":2813,"ĠJapanese":2814,"Ġjoined":2815,"Ġhighest":2816,"band":2817,"men":2818,"ĠTimes":2819,"ulated":2820,"ching":2821,"Ġplaced":2822,"Ġcontr":2823,"ĠCarol":2824,"Ġinvolved":2825,"ecutive":2826,"ĠPresident":2827,"for":2828,"Ġwestern":2829,"Ġfly":2830,"ĠSun":2831,"ĠGovern":2832,"Ġpriv":2833,"Ġsigned":2834,"Ġsuggested":2835,"leg":2836,"ĠMos":2837,"elled":2838,"Ġ45":2839,"Ġ183":2840,"Ġparts":2841,"Ġsyn":2842,"ĠCard":2843,"ĠMy":2844,"ĠGold":2845,"Ġintens":2846,"ĠIndia":2847,"ĠOlivier":2848,"Ġtru":2849,"Ġhous":2850,"ĠSchool":2851,"thlet":2852,"ĠLater":2853,"Ġproper":2854,"Ġchange":2855,"Ġleague":2856,"Ġitself":2857,"ĠVietn":2858,"mb":2859,"Ġesp":2860,"Ġinj":2861,"Ġdon":2862,"ĠCong":2863,"ĠHall":2864,"Ġshot":2865,"Ġrap":2866,"anna":2867,"Ġaverage":2868,"ĠMexico":2869,"ĠIrish":2870,"Ġtaking":2871,"Ġhard":2872,"ĠNot":2873,"ume":2874,"Ġavailable":2875,"Ġey":2876,"urg":2877,"Ġexcept":2878,"Ġscene":2879,"ronic":2880,"Ġtransport":2881,"Ġtransfer":2882,"Ġbrother":2883,"Ġbreak":2884,"ready":2885,"Ġintroduced":2886,"Ġhit":2887,"ĠPac":2888,"Ġwhose":2889,"Ġheav":2890,"Ġrecording":2891,"Ġvillage":2892,"Ġwood":2893,"Ġstop":2894,"Ġrace":2895,"ĠStar":2896,"ĠVar":2897,"Ġsubject":2898,"Ġrail":2899,"porary":2900,"ĠThomas":2901,"go":2902,"rd":2903,"ximately":2904,"Ġslow":2905,"Ġ60":2906,"Ġphys":2907,"Ġgrad":2908,"Ġreligious":2909,"Ġfr":2910,"Ġmem":2911,"Ġnetwork":2912,"achel":2913,"Ġgra":2914,"Ġeduc":2915,"Ġtold":2916,"Ġnine":2917,"Ġnames":2918,"ĠNY":2919,"Ġabs":2920,"Ġremov":2921,"ĠBritain":2922,"Ġshows":2923,"Ġ1960":2924,"Ġdamaged":2925,"iqu":2926,"Ġtest":2927,"Ġcru":2928,"arily":2929,"Ġpiec":2930,"Ġindepend":2931,"ĠScient":2932,"Ġincreasing":2933,"Ġturned":2934,"Ġcapital":2935,"Ġsocial":2936,"ĠRepublic":2937,"gu":2938,"Ġap":2939,"oration":2940,"Ġcal":2941,"enes":2942,"Ġlines":2943,"Ġgive":2944,"ĠHurricane":2945,"ĠPo":2946,"ĠGreat":2947,"Ġchap":2948,"ĠThat":2949,"ĠGuitar":2950,"Ġstructure":2951,"aled":2952,"ĠMany":2953,"ĠAnt":2954,"Ġfeel":2955,"Ġnearly":2956,"Ġdeterm":2957,"Ġappointed":2958,"Ġdespite":2959,"Ġsize":2960,"Ġcycl":2961,"odies":2962,"ĠUnion":2963,"ĠZeal":2964,"Ġcomplet":2965,"Ġcommunity":2966,"hib":2967,"Ġ?":2968,"Ġbill":2969,"Ġinternational":2970,"Ġden":2971,"Ġdate":2972,"Ġliter":2973,"Ġeconom":2974,"ĠLa":2975,"ateg":2976,"rang":2977,"Ġ184":2978,"ĠArt":2979,"Ġsurround":2980,"Ġpassed":2981,"Ġfut":2982,"Ġmight":2983,"oul":2984,"ecially":2985,"irt":2986,"Ġwithd":2987,"rian":2988,"bert":2989,"hedral":2990,"Ġscore":2991,"Ġimmedi":2992,"inese":2993,"Ġoccup":2994,"Ġestablish":2995,"Ġdebut":2996,"Ġinitially":2997,"osaurus":2998,"Ġcertain":2999,"lict":3000,"Ġwinning":3001,"Ġcas":3002,"Ġpot":3003,"Ġtow":3004,"ĠMa":3005,"Ġalready":3006,"ĠEver":3007,"Ġdeal":3008,"Ġdisp":3009,"Ġassist":3010,"Ġtraining":3011,"Ġgoing":3012,"Ġparticip":3013,"Ġarchae":3014,"ĠPacific":3015,"Ġfailed":3016,"ication":3017,"Ġstates":3018,"ĠChinese":3019,"ĠEarly":3020,"Ġlanguage":3021,"ĠZealand":3022,"fect":3023,"ha":3024,"ires":3025,"Ġmale":3026,"Ġdoc":3027,"ĠDon":3028,"rag":3029,"ĠJin":3030,"ability":3031,"Ġaccording":3032,"Ġrain":3033,"Ġforest":3034,"Ġprobably":3035,"Ġespecially":3036,"den":3037,"Ġfood":3038,"ĠSing":3039,"ĠCath":3040,"ĠDr":3041,"Ġkey":3042,"Ġ2002":3043,"ification":3044,"Ġdepict":3045,"Ġminor":3046,"Ġissue":3047,"nel":3048,"Ġaut":3049,"Ġdaugh":3050,"ĠPri":3051,"ĠFilm":3052,"ĠLaw":3053,"Ġstudio":3054,"ĠIII":3055,"ĠTom":3056,"ady":3057,"Ġforward":3058,"ĠPeter":3059,"Ġspent":3060,"Ġincludes":3061,"ference":3062,"Ġarrived":3063,"Ġordered":3064,"ĠHistory":3065,"ĠWheeler":3066,"aut":3067,"ship":3068,"ises":3069,"ĠAwards":3070,"ĠSch":3071,"ilities":3072,"aval":3073,"Ġarmy":3074,"Ġenough":3075,"Ġremaining":3076,"Ġblock":3077,"Ġvisit":3078,"ĠCanadian":3079,"ĠAngel":3080,"stein":3081,"ties":3082,"onse":3083,"Ġfail":3084,"Ġdro":3085,"ĠNavy":3086,"Ġsometimes":3087,"Ġmixed":3088,"back":3089,"lor":3090,"zz":3091,"Ġdi":3092,"ĠTer":3093,"ĠSoc":3094,"owl":3095,"ĠRose":3096,"Ġcome":3097,"ĠUK":3098,"Ġcomplete":3099,"Ġapproximately":3100,"Ġreviews":3101,"Ġrequired":3102,"ĠAssoci":3103,"orial":3104,"Ġtouch":3105,"ĠCreek":3106,"Ġlower":3107,"Ġlatter":3108,"quar":3109,"ranch":3110,"rics":3111,"Ġimm":3112,"Ġcenter":3113,"to":3114,"ĠMer":3115,"ĠMet":3116,"lymp":3117,"ĠPenn":3118,"ĠInf":3119,"Ġremain":3120,"Ġbeginning":3121,"ĠAfrica":3122,"down":3123,"inct":3124,"inist":3125,"stant":3126,"ĠHol":3127,"ĠOlymp":3128,"ĠVirgin":3129,"Ġsem":3130,"Ġwoman":3131,"etic":3132,"ĠStud":3133,"Ġjourn":3134,"Ġdecision":3135,"Ġprevent":3136,"Ġlimited":3137,"iest":3138,"rack":3139,"under":3140,"Ġhapp":3141,"Ġdead":3142,"Ġ38":3143,"Ġusually":3144,"Ġbetter":3145,"Ġstudents":3146,"Ġadditional":3147,"Ġchanges":3148,"ĠRegiment":3149,"edy":3150,"Ġstay":3151,"ĠRout":3152,"ĠRachel":3153,"ĠNort":3154,"ĠJe":3155,"aby":3156,"Ġpresident":3157,"Ġemb":3158,"Ġrunning":3159,"Ġresponse":3160,"Ġsch":3161,"adron":3162,"Ġended":3163,"Ġpositive":3164,"Ġlarger":3165,"ĠScott":3166,"Ġconcern":3167,"gar":3168,"erat":3169,"Ġmention":3170,"ĠTV":3171,"ĠAward":3172,"Ġ80":3173,"Ġquest":3174,"Ġsupported":3175,"Ġtype":3176,"Ġmagazine":3177,"ios":3178,"uals":3179,"ĠFort":3180,"ĠJer":3181,"Ġnotes":3182,"Ġdepression":3183,"Ġpolice":3184,"ĠCharles":3185,"Ġpressure":3186,"Ġprior":3187,"oor":3188,"reak":3189,"Ġwide":3190,"Ġbirth":3191,"enty":3192,"Ġcompl":3193,"Ġamount":3194,"Ġbirds":3195,"Ġshown":3196,"Ġ1995":3197,"Ġrelated":3198,"ĠBillboard":3199,"Ġface":3200,"uments":3201,"Ġ75":3202,"Ġfeature":3203,"rief":3204,"Ġfifth":3205,"Ġfuture":3206,"rat":3207,"aring":3208,"ĠHot":3209,"ĠUnder":3210,"Ġappl":3211,"Ġ1980":3212,"Ġprovide":3213,"Ġdefeated":3214,"com":3215,"Ġche":3216,"ani":3217,"Ġder":3218,"ils":3219,"ĠCamp":3220,"ĠHill":3221,"Ġstaff":3222,"Ġanc":3223,"arts":3224,"Ġdiscovered":3225,"bers":3226,"Ġsat":3227,"Ġsil":3228,"Ġsection":3229,"ĠSy":3230,"ĠPat":3231,"ĠRes":3232,"ĠOper":3233,"ifa":3234,"Ġtemper":3235,"ĠRoute":3236,"hou":3237,"ney":3238,"Ġcm":3239,"enon":3240,"Ġdoll":3241,"ĠBel":3242,"ĠFI":3243,"ĠWestern":3244,"riage":3245,"ishop":3246,"Ġbecoming":3247,"ĠFrank":3248,"Ġfrequ":3249,"gely":3250,"oo":3251,"eding":3252,"Ġword":3253,"rael":3254,"ĠLight":3255,"ĠColle":3256,"ĠArab":3257,"ĠRh":3258,"ĠWood":3259,"ands":3260,"Ġvot":3261,"Ġexam":3262,"ector":3263,"oke":3264,"key":3265,"oys":3266,"Ġsmaller":3267,"uf":3268,"itte":3269,"Ġflow":3270,"Ġdomin":3271,"ĠTur":3272,"idents":3273,"unt":3274,"raw":3275,"Ġintended":3276,"Ġpercent":3277,"Ġscreen":3278,"Ġcolon":3279,"Ġgroups":3280,"Ġidea":3281,"ĠScientology":3282,"well":3283,"inent":3284,"Ġfir":3285,"Ġfleet":3286,"asy":3287,"iforn":3288,"ĠYear":3289,"Ġthemsel":3290,"Ġmostly":3291,"Ġmetres":3292,"Ġconclud":3293,"Ġdiscuss":3294,"ĠHaifa":3295,"Ġradio":3296,"Ġprofessional":3297,"Ġthemselves":3298,"gen":3299,"ses":3300,"era":3301,"anies":3302,"ĠRuss":3303,"ples":3304,"Ġ2016":3305,"Ġmusical":3306,"Ġsurface":3307,"Ġminutes":3308,"Ġcaptured":3309,"Ġreferred":3310,"ĠCroat":3311,"Ġlikely":3312,"uing":3313,"anish":3314,"ĠSince":3315,"ĠMil":3316,"imate":3317,"cean":3318,"ĠOver":3319,"iano":3320,"Ġoffice":3321,"Ġlargely":3322,"ĠParliament":3323,"Ġproblems":3324,"ĠAssociation":3325,"ror":3326,"Ġtry":3327,"Ġlab":3328,"Ġlink":3329,"ĠHow":3330,"rain":3331,"ĠUp":3332,"Ġund":3333,"Ġcontem":3334,"Ġindic":3335,"Ġentered":3336,"Ġmedia":3337,"ĠPortug":3338,"Ġsummer":3339,"quarters":3340,"iser":3341,"isions":3342,"Ġmakes":3343,"ĠSov":3344,"ĠNic":3345,"ĠOtt":3346,"Ġshoot":3347,"ĠVer":3348,"Ġens":3349,"orning":3350,"Ġmoving":3351,"ĠIsrael":3352,"ĠEarth":3353,"Ġobserv":3354,"Ġbroadcast":3355,"Ġself":3356,"Ġpair":3357,"Ġcontains":3358,"ĠCaliforn":3359,"Ġkeep":3360,"Ġconstructed":3361,"sen":3362,"Ġinn":3363,"Ġmoney":3364,"lex":3365,"ĠSam":3366,"ĠCouncil":3367,"ĠBey":3368,"Ġconcept":3369,"Ġvoice":3370,"ĠInter":3371,"Ġsea":3372,"Ġ1999":3373,"Ġparen":3374,"ĠSur":3375,"Ġnature":3376,"iva":3377,"ĠHaw":3378,"ĠRoss":3379,"ruit":3380,"Ġadop":3381,"ylv":3382,"Ġguitar":3383,"Ġeffects":3384,"Ġcele":3385,"ĠGalvest":3386,"ĠGalveston":3387,"kan":3388,"ergy":3389,"Ġstories":3390,"ĠChic":3391,"onym":3392,"Ġ1950":3393,"Ġgrant":3394,"Ġmajority":3395,"Ġlisted":3396,"Ġranked":3397,"ĠJewish":3398,"het":3399,"Ġconsist":3400,"Ġcreate":3401,"hester":3402,"Ġexperience":3403,"Ġresearch":3404,"ma":3405,"Ġcle":3406,"urity":3407,"Ġleaving":3408,"Ġuns":3409,"Ġ70":3410,"Ġmeth":3411,"ĠBrad":3412,"Ġcritical":3413,"Ġfavor":3414,"Ġschol":3415,"Ġbrief":3416,"Ġthus":3417,"ĠMart":3418,"owler":3419,"aven":3420,"Ġ33":3421,"ously":3422,"Ġscript":3423,"Ġearth":3424,"Ġcontroll":3425,"Ġprimary":3426,"eratops":3427,"pool":3428,"rison":3429,"oud":3430,"ĠServ":3431,"Ġlived":3432,"Ġalways":3433,"ership":3434,"Ġdeep":3435,"ĠAnother":3436,"Ġunderst":3437,"Ġfilms":3438,"Ġlocation":3439,"anks":3440,"Ġruns":3441,"Ġofficers":3442,"Ġgods":3443,"Ġagreed":3444,"Ġlyrics":3445,"Ġri":3446,"atively":3447,"change":3448,"teen":3449,"Ġrare":3450,"ospital":3451,"Ġlaunched":3452,"ĠCalifornia":3453,"dle":3454,"Ġcounter":3455,"Ġded":3456,"aches":3457,"ĠPet":3458,"illery":3459,"order":3460,"lands":3461,"Ġattract":3462,"Ġprem":3463,"Ġteams":3464,"Ġminute":3465,"Ġculture":3466,"Ġquickly":3467,"ĠCatholic":3468,"awn":3469,"ras":3470,"Ġx":3471,"Ġfans":3472,"ĠMr":3473,"ĠIf":3474,"ĠFore":3475,"ĠForm":3476,"Ġmeant":3477,"Ġamb":3478,"Ġepisodes":3479,"Ġproposed":3480,"Ġoccurred":3481,"ĠChicago":3482,"lo":3483,"oir":3484,"ĠSaint":3485,"Ġlo":3486,"imum":3487,"Ġwhether":3488,"Ġadapt":3489,"Ġ400":3490,"Ġassigned":3491,"Ġaccess":3492,"Ġincrease":3493,"AS":3494,"Ġcred":3495,"Ġdram":3496,"Ġhop":3497,"ĠTre":3498,"ĠBec":3499,"ĠLatin":3500,"umn":3501,"Ġ32":3502,"Ġpoet":3503,"Ġcann":3504,"Ġproduct":3505,"Ġforms":3506,"Ġtraffic":3507,"Ġappears":3508,"Ġdefeat":3509,"Ġchanged":3510,"Ġdestroyed":3511,"iant":3512,"Ġtons":3513,"Ġlog":3514,"ĠBen":3515,"Ġasp":3516,"ĠNix":3517,"Ġcommission":3518,"Ġtrade":3519,"ĠEnter":3520,"ĠArch":3521,"Ġlonger":3522,"ĠBattle":3523,"ĠCentral":3524,"Ġmeaning":3525,"mas":3526,"oned":3527,"Ġbound":3528,"anced":3529,"rol":3530,"Ġmom":3531,"ĠSever":3532,"ĠCamb":3533,"ĠMey":3534,"ĠHo":3535,"ortun":3536,"Ġran":3537,"ĠAlice":3538,"Ġjob":3539,"Ġtheme":3540,"Ġnumbers":3541,"Ġprinc":3542,"ĠScot":3543,"Ġ1940":3544,"undred":3545,"Ġsoldiers":3546,"Ġcompetition":3547,"Ġnucle":3548,"Ã³n":3549,"ex":3550,"Ġbomb":3551,"Ġreach":3552,"Ġgirl":3553,"thing":3554,"ĠDj":3555,"Ġkil":3556,"Ġleave":3557,"ĠItal":3558,"Ġnewsp":3559,"Ġacqu":3560,"Ġcarried":3561,"ĠTex":3562,"Ġawarded":3563,"Ġfocus":3564,"ĠNorthern":3565,"tar":3566,"Ġ300":3567,"Ġ1998":3568,"Ġconcert":3569,"Ġconsider":3570,"Ġconducted":3571,"Ġprivate":3572,"Ġdaughter":3573,"NA":3574,"ening":3575,"anas":3576,"rown":3577,"ĠTw":3578,"Ġnatural":3579,"ows":3580,"ĠJam":3581,"Ġoverall":3582,"Ġenv":3583,"Ġ90":3584,"Ġrecords":3585,"ĠSecond":3586,"Ġsubsequently":3587,"cing":3588,"itation":3589,"Ġcause":3590,"Ġtourn":3591,"ĠTra":3592,"Ġthick":3593,"Ġemer":3594,"ĠBC":3595,"imin":3596,"usband":3597,"ĠDel":3598,"ĠLiver":3599,"Ġdeg":3600,"Ġplans":3601,"ĠVilla":3602,"ĠAlkan":3603,"Ġdism":3604,"Ġ1930":3605,"Ġanti":3606,"Ġfighting":3607,"bar":3608,"ga":3609,"lin":3610,"Ġult":3611,"Ġtakes":3612,"Ġsus":3613,"eds":3614,"itor":3615,"itude":3616,"Ġbox":3617,"Ġrein":3618,"Ġlay":3619,"Ġgraph":3620,"Ġkind":3621,"ective":3622,"Ġwhole":3623,"Ġ1993":3624,"Ġelection":3625,"ĠPolish":3626,"Ġinfluence":3627,"Ġcommented":3628,"Ġdouble":3629,"Ġindustry":3630,"ken":3631,"Ġ+":3632,"ĠTay":3633,"ĠTour":3634,"ĠMinn":3635,"Ġserious":3636,"Ġfinally":3637,"Ġbring":3638,"Ġasked":3639,"ĠNixon":3640,"ĠLiverpool":3641,"Ġtar":3642,"Ġdig":3643,"Ġthrow":3644,"alled":3645,"Ġupper":3646,"Ġcompared":3647,"ĠIts":3648,"Ġjud":3649,"Ġcentre":3650,"Ġending":3651,"ĠGeorg":3652,"ĠSomers":3653,"stitute":3654,"Ġgreater":3655,"Ġmethod":3656,"ny":3657,"Ġpurch":3658,"Ġdone":3659,"Ġreject":3660,"ĠMal":3661,"ĠBack":3662,"olk":3663,"ĠLady":3664,"istics":3665,"ells":3666,"Ġunable":3667,"Ġ47":3668,"Ġflight":3669,"ologist":3670,"Ġpositions":3671,"Ġaccomp":3672,"itting":3673,"Ġmarried":3674,"ittee":3675,"ĠTexas":3676,"II":3677,"ging":3678,"Ġour":3679,"Ġbig":3680,"alys":3681,"ĠHum":3682,"ĠFoot":3683,"Ġ39":3684,"aily":3685,"Ġbuildings":3686,"Ġpersonal":3687,"Ġmarket":3688,"Ġstandard":3689,"ĠMosley":3690,"Ġrapid":3691,"ĠSomerset":3692,"ĠTropical":3693,"ĠSol":3694,"Ġgot":3695,"ĠRob":3696,"agon":3697,"Ġyet":3698,"ĠVict":3699,"Ġparty":3700,"Ġearned":3701,"Ġbooks":3702,"TV":3703,"Ġmor":3704,"Ġdom":3705,"Ġdark":3706,"ĠTenn":3707,"ĠCour":3708,"Ġliving":3709,"Ġhero":3710,"ĠOut":3711,"ĠThree":3712,"Ġ1996":3713,"Ġcollect":3714,"Ġphot":3715,"Ġconflict":3716,"Ġbegins":3717,"Ġissued":3718,"ĠBusch":3719,"car":3720,"Ġmur":3721,"ĠSal":3722,"ada":3723,"ĠBob":3724,"ĠFin":3725,"ĠLake":3726,"ria":3727,"Ġdirectly":3728,"Ġmarked":3729,"Ġterms":3730,"aught":3731,"Ġtraditional":3732,"house":3733,"Ġsal":3734,"umed":3735,"Ġhealth":3736,"Ġaband":3737,"Ġscenes":3738,"athan":3739,"Ġmovement":3740,"ĠSpanish":3741,"ĠChristmas":3742,"Ġmarriage":3743,"Ġstatus":3744,"ĠAfrican":3745,"ĠTaylor":3746,"rey":3747,"Ġpath":3748,"ĠFowler":3749,"bery":3750,"ĠCommand":3751,"Ġslight":3752,"Ġhelped":3753,"Ġfigure":3754,"ĠSeveral":3755,"rical":3756,"itch":3757,"Ġbatter":3758,"Ġpil":3759,"ĠCross":3760,"Ġnorm":3761,"adm":3762,"aded":3763,"ĠDem":3764,"ĠLou":3765,"odon":3766,"eway":3767,"ĠStorm":3768,"Ġsched":3769,"embly":3770,"Ġstarting":3771,"Ġattacks":3772,"Ġschools":3773,"Ġexperi":3774,"Ġinformation":3775,"Ġsuffered":3776,"Ġplanned":3777,"bury":3778,"anz":3779,"Ġhusband":3780,"Ġlif":3781,"ĠIll":3782,"Ġgiving":3783,"ĠNor":3784,"ĠJust":3785,"Ġrh":3786,"Ġperformances":3787,"Ġassociated":3788,"Ġinspired":3789,"Ġsource":3790,"ĠInfantry":3791,"ĠSoviet":3792,"ien":3793,"Ġdivision":3794,"cend":3795,"ĠJane":3796,"ify":3797,"Ġplot":3798,"Ġclosed":3799,"ounds":3800,"ibly":3801,"Ġtransl":3802,"ĠCont":3803,"Ġpresented":3804,"Ġinitial":3805,"Ġcondoms":3806,"ĠParty":3807,"Ġmachine":3808,"tation":3809,"atre":3810,"ican":3811,"ĠTrans":3812,"imb":3813,"ĠGo":3814,"Ġvia":3815,"ĠInn":3816,"Ġroom":3817,"Ġimage":3818,"Ġraised":3819,"Ġpresence":3820,"Ġpolic":3821,"Ġgreatest":3822,"ĠSeries":3823,"Ġeducation":3824,"ares":3825,"like":3826,"sylv":3827,"uff":3828,"erve":3829,"Ġfell":3830,"Ġinters":3831,"Ġpay":3832,"Ġhundred":3833,"ĠTem":3834,"ĠSix":3835,"ĠCast":3836,"olf":3837,"ĠLong":3838,"Ġchall":3839,"ections":3840,"Ġunit":3841,"Ġuses":3842,"Ġ42":3843,"Ġwriters":3844,"Ġcontinue":3845,"Ġnearby":3846,"ĠClub":3847,"ĠParis":3848,"orpor":3849,"ĠCarolina":3850,"Ġdocument":3851,"ĠPennsylv":3852,"ĠVirginia":3853,"Ġsusp":3854,"iated":3855,"rate":3856,"Ġpark":3857,"ĠRam":3858,"ĠLive":3859,"Ġprep":3860,"iami":3861,"Ġcomplex":3862,"Ġcovered":3863,"Ã¡n":3864,"Ġcollection":3865,"Ġcyclone":3866,"rid":3867,"Ġtalk":3868,"itect":3869,"Ġhabit":3870,"ĠMill":3871,"imony":3872,"Ġconver":3873,"essa":3874,"Ġspace":3875,"Ġcomposed":3876,"Ġenj":3877,"Ġweap":3878,"inner":3879,"Ġannual":3880,"Ġservices":3881,"ĠAcad":3882,"ĠQueen":3883,"ĠCollege":3884,"ĠMeyer":3885,"iny":3886,"Ġbodies":3887,"Ġreally":3888,"ether":3889,"ĠWater":3890,"Ġsev":3891,"Ġ1997":3892,"Ġnumerous":3893,"Ġmetal":3894,"Ġextended":3895,"Ġcommander":3896,"Ġcathedral":3897,"Ġwaters":3898,"Ġfigures":3899,"Ġproducer":3900,"Ġterritory":3901,"oncÃ©":3902,"ĠBeyoncÃ©":3903,"een":3904,"tain":3905,"Ġhot":3906,"Ġthings":3907,"ĠMiami":3908,"uries":3909,"ĠDan":3910,"ĠDam":3911,"ĠLo":3912,"ĠJose":3913,"anta":3914,"pted":3915,"ports":3916,"ĠGermany":3917,"ĠMuseum":3918,"Ġsomething":3919,"Ġvocals":3920,"Ġproteins":3921,"Ġindividual":3922,"ped":3923,"zy":3924,"ĠTheir":3925,"ĠGames":3926,"ĠNations":3927,"ipal":3928,"Ġ44":3929,"Ġfinanc":3930,"Ġartist":3931,"Ġoperation":3932,"ricket":3933,"Ġnecess":3934,"Ġinvestig":3935,"ev":3936,"uit":3937,"Ġtax":3938,"Ġsaf":3939,"Ġpick":3940,"Ġmorning":3941,"estival":3942,"ĠEr":3943,"apo":3944,"Ġcompanies":3945,"ĠThrough":3946,"Ġtext":3947,"Ġhighly":3948,"Ġimpact":3949,"Ġattacked":3950,"Ġdetail":3951,"Ġattempts":3952,"Ġrequest":3953,"ĠSomal":3954,"Ġstrength":3955,"ĠService":3956,"ding":3957,"pole":3958,"vement":3959,"Ġbad":3960,"ĠCer":3961,"ĠCrit":3962,"omer":3963,"ado":3964,"adium":3965,"ĠGar":3966,"Ġrecover":3967,"Ġdise":3968,"ribution":3969,"Ġvers":3970,"Ġinteract":3971,"Ġsymb":3972,"Ġartillery":3973,"Ġconfir":3974,"Ġspeed":3975,"Ġera":3976,"Ġimmediately":3977,"admium":3978,"ĠPennsylvania":3979,"track":3980,"atives":3981,"isation":3982,"isher":3983,"Ġpurs":3984,"Ġpiano":3985,"ĠAI":3986,"ĠCons":3987,"ĠMajor":3988,"Ġstone":3989,"ĠLi":3990,"Ġplat":3991,"Ġspir":3992,"Ġdistance":3993,"Ġallowing":3994,"Ġtracks":3995,"Ġpowerful":3996,"Ġsituation":3997,"ĠJackson":3998,"Ġnuclear":3999,"ĠSquadron":4000,"Ġremoved":4001,"Ġcelebr":4002,"Ġkilomet":4003,"hic":4004,"onna":4005,"Ġintern":4006,"andid":4007,"aging":4008,"Ġrate":4009,"Ġselected":4010,"Ġsearch":4011,"Ġkick":4012,"iple":4013,"Ġ51":4014,"Ġoffered":4015,"Ġsecret":4016,"Ġblood":4017,"Ġstudies":4018,"Ġinside":4019,"Ġadvance":4020,"Ġvariety":4021,"Ġfriends":4022,"Ġneeded":4023,"Ġpeaked":4024,"Ġsexual":4025,"Ġpurp":4026,"ĠScotland":4027,"ĠVictor":4028,"Ġmole":4029,"oura":4030,"ĠSir":4031,"Ġnative":4032,"ĠBet":4033,"ĠBoth":4034,"Ġstra":4035,"ĠRad":4036,"ĠLos":4037,"rial":4038,"Ġ182":4039,"izing":4040,"Ġprec":4041,"Ġ1991":4042,"Ġmeans":4043,"Ġcoach":4044,"ĠChris":4045,"Ġcountries":4046,"Ġheadquarters":4047,"Ġattempted":4048,"Ġcopies":4049,"ĠFootball":4050,"ãĥ":4051,"ims":4052,"ĠLand":4053,"Ġrule":4054,"ĠChina":4055,"Ġscoring":4056,"Ġadvant":4057,"Ġhands":4058,"Ġwidely":4059,"Ġrespectively":4060,"ĠOpen":4061,"Ġresponsible":4062,"Ġcasual":4063,"aen":4064,"hood":4065,"ware":4066,"alty":4067,"Ġmax":4068,"Ġhar":4069,"ĠAlex":4070,"Ġgrand":4071,"Ġang":4072,"send":4073,"annel":4074,"Ġsets":4075,"Ġextrem":4076,"Ġdescribes":4077,"Ġappearances":4078,"Ġcontrovers":4079,"ĠAnderson":4080,"Ġgenus":4081,"Ġhigher":4082,"ĠDepartment":4083,"Ġtouchdown":4084,"hew":4085,"ĠAre":4086,"iron":4087,"ĠPost":4088,"ĠOff":4089,"aped":4090,"ends":4091,"Ġcanc":4092,"Ġ1992":4093,"Ġlands":4094,"Ġconstit":4095,"Ġcourse":4096,"Ġmiddle":4097,"Ġmagn":4098,"Ġobserved":4099,"ĠBraat":4100,"ĠCorps":4101,"Ġheavily":4102,"MS":4103,"me":4104,"vin":4105,"Ġess":4106,"ĠTime":4107,"ĠBre":4108,"ĠNes":4109,"illed":4110,"Ġseem":4111,"ellig":4112,"Ġcompos":4113,"rane":4114,"Ġadult":4115,"Ġdisplay":4116,"Ġ1994":4117,"Ġrelief":4118,"ĠRev":4119,"Ġbelow":4120,"Ġsixth":4121,"shire":4122,"Ġadminist":4123,"Ġreduced":4124,"Ġmeeting":4125,"Ġxenon":4126,"Ġenjoy":4127,"light":4128,"esota":4129,"ĠMidd":4130,"ulations":4131,"ĠLike":4132,"umber":4133,"Ġ37":4134,"Ġ48":4135,"Ġjump":4136,"Ġ76":4137,"Ġactive":4138,"Ġblue":4139,"Ġsinger":4140,"Ġmatches":4141,"Ġresulted":4142,"Ġopportun":4143,"Ġaudience":4144,"force":4145,"Ġconcluded":4146,"ĠMinnesota":4147,"uated":4148,"Ġwing":4149,"Ġcorn":4150,"isk":4151,"Ġpaper":4152,"Ġhol":4153,"Ġhour":4154,"ĠCor":4155,"ĠCapt":4156,"ĠPit":4157,"ĠEmp":4158,"akapo":4159,"rance":4160,"Ġshell":4161,"Ġinstit":4162,"inkel":4163,"Ġactivity":4164,"Ġactivities":4165,"ĠSmith":4166,"Ġtrue":4167,"Ġcompletely":4168,"ris":4169,"Ġcer":4170,"isl":4171,"Ġbene":4172,"Ġpu":4173,"room":4174,"ĠSouthern":4175,"ĠBol":4176,"Ġstating":4177,"utch":4178,"ĠGreen":4179,"ĠJul":4180,"Ġdisapp":4181,"Ġmanaged":4182,"athus":4183,"ĠSea":4184,"Ġmodel":4185,"ĠCenter":4186,"ĠTownsend":4187,"Ġrevealed":4188,"ĠRosebery":4189,"Ġquestion":4190,"Ġcontemporary":4191,"ĠHawai":4192,"ĠItalian":4193,"ĠMeyerbe":4194,"ipped":4195,"ãģ":4196,"Ġwound":4197,"ĠDist":4198,"ĠFur":4199,"ĠJim":4200,"ift":4201,"ĠKa":4202,"Ġquality":4203,"ervation":4204,"Ġrefused":4205,"Ġdrum":4206,"Ġlevels":4207,"Äģd":4208,"Ġdeclared":4209,"Ġtrees":4210,"Ġseparate":4211,"ĠNicole":4212,"ĠMeyerbeer":4213,"bed":4214,"bird":4215,"Ġpun":4216,"acher":4217,"ĠFinkel":4218,"ecting":4219,"ĠThunder":4220,"rowd":4221,"ĠConf":4222,"Ġbrown":4223,"ĠForce":4224,"Ġapproach":4225,"ĠWalpole":4226,"Ġcontrast":4227,"ĠBecause":4228,"ĠFinkelstein":4229,"ingu":4230,"Ġtoday":4231,"Ġdu":4232,"ĠTessa":4233,"stone":4234,"ĠCat":4235,"Ġlot":4236,"ĠDo":4237,"estic":4238,"Ġuniversity":4239,"peror":4240,"Ġrecent":4241,"ĠYue":4242,"Ġwebs":4243,"ĠShiva":4244,"Ġbackground":4245,"Ġreception":4246,"Ġ150":4247,"Ġfeaturing":4248,"Ġrespond":4249,"Ġcarry":4250,"Ġtypically":4251,"Ġhistorical":4252,"Ġvocal":4253,"Ġparents":4254,"gal":4255,"hold":4256,"Ġwalk":4257,"itual":4258,"Ġchem":4259,"Ġpow":4260,"road":4261,"Ġhair":4262,"ĠSar":4263,"Ġnation":4264,"ĠPre":4265,"Ġbeat":4266,"ĠWild":4267,"Ġ52":4268,"Ġdispl":4269,"Ġplays":4270,"anger":4271,"orship":4272,"Ġactions":4273,"Ġpeace":4274,"Ġexpected":4275,"Ġemot":4276,"aha":4277,"ĠBlue":4278,"Ġissues":4279,"ĠCharl":4280,"Ġconditions":4281,"Ġvehic":4282,"ĠSociety":4283,"ĠOttoman":4284,"ĠIllino":4285,"FA":4286,"ka":4287,"Ġinh":4288,"Ġrear":4289,"iled":4290,"ĠBalt":4291,"ĠHal":4292,"ĠRo":4293,"ogue":4294,"Ġroy":4295,"Ġbecomes":4296,"Ġattention":4297,"Ġweaken":4298,"Ġassault":4299,"Ġmainly":4300,"Ġfamil":4301,"Ġefforts":4302,"ĠSpec":4303,"arent":4304,"Ġhouses":4305,"eption":4306,"Ġwear":4307,"Ġmel":4308,"Ġdraft":4309,"ĠTurn":4310,"ĠAv":4311,"usion":4312,"ĠDes":4313,"ĠOm":4314,"essions":4315,"Ġ34":4316,"Ġresidents":4317,"Ġoffer":4318,"ocks":4319,"Ġspecim":4320,"ype":4321,"Ġinstr":4322,"ĠAdam":4323,"ĠFranc":4324,"ĠHighway":4325,"Ġstrugg":4326,"ĠCourt":4327,"ĠBraathens":4328,"BA":4329,"bon":4330,"Ġathlet":4331,"Ġsense":4332,"ĠTod":4333,"ĠBurn":4334,"emic":4335,"oses":4336,"ocr":4337,"Ġrecomm":4338,"ĠArg":4339,"Ġactually":4340,"Ġcalling":4341,"Ġelev":4342,"Ġtitles":4343,"Ġdemonst":4344,"ĠHait":4345,"Ġsoundtrack":4346,"Ġprotein":4347,"ufact":4348,"onents":4349,"Ġsn":4350,"edo":4351,"Ġcrowd":4352,"enge":4353,"Ġboard":4354,"iles":4355,"Ġthous":4356,"Ġaltern":4357,"ĠLittle":4358,"Ġroles":4359,"Ġpoly":4360,"Ġseasons":4361,"Ġwrite":4362,"Ġdefend":4363,"ledge":4364,"ĠJohnson":4365,"ĠColumb":4366,"ĠDef":4367,"Ġarchitect":4368,"Ġaccepted":4369,"Ġstruck":4370,"Ġachieved":4371,"ĠGovernment":4372,"ĠPortugues":4373,"Ġcannot":4374,"cript":4375,"iro":4376,"ply":4377,"Ġfruit":4378,"anes":4379,"ications":4380,"Ġthr":4381,"Ġnin":4382,"ĠMog":4383,"utions":4384,"ĠFam":4385,"ĠFey":4386,"ĠOf":4387,"pping":4388,"berg":4389,"ipl":4390,"Ġresc":4391,"Ġscient":4392,"ension":4393,"Ġtypes":4394,"Ġpractice":4395,"ĠVietnam":4396,"alysis":4397,"ĠPortuguese":4398,"wen":4399,"Ġrough":4400,"Ġcam":4401,"Ġfiction":4402,"roll":4403,"Ġdyn":4404,"Ġlb":4405,"ĠMat":4406,"anded":4407,"eller":4408,"irection":4409,"Ġ181":4410,"Ġscul":4411,"anning":4412,"Ġdistinct":4413,"Ġinfantry":4414,"ĠSpain":4415,"ĠAdd":4416,"echan":4417,"Ġavoid":4418,"Ġprimarily":4419,"ĠSecret":4420,"Ġsequence":4421,"ĠAcademy":4422,"Ġsales":4423,"ĠTint":4424,"ĠCivil":4425,"ĠBook":4426,"ĠFer":4427,"ĠGroup":4428,"Ġplant":4429,"Ġspread":4430,"ĠYoung":4431,"ĠEngine":4432,"Ġ1986":4433,"Ġowned":4434,"Ġtwenty":4435,"Ġelected":4436,"Ġcombat":4437,"Ġslightly":4438,"met":4439,"Ġsister":4440,"ĠSarn":4441,"ĠHorse":4442,"use":4443,"ĠWels":4444,"Ġheart":4445,"ĠEs":4446,"Ġsuc":4447,"Ġsust":4448,"Ġsport":4449,"ograp":4450,"Ġinches":4451,"Ġscale":4452,"Ġoffensive":4453,"ĠAnn":4454,"Ġexpressed":4455,"Ġconcent":4456,"Ġextra":4457,"Ġcounty":4458,"ĠPrince":4459,"Ġrights":4460,"Ġnortheast":4461,"Ġaffected":4462,"ceeded":4463,"onymous":4464,"ĠLouis":4465,"ĠCaptain":4466,"AA":4467,"right":4468,"Ġsout":4469,"Ġwords":4470,"ora":4471,"Ġfarm":4472,"Ġple":4473,"Ġmis":4474,"ĠTri":4475,"ĠChe":4476,"ols":4477,"ushed":4478,"ĠDou":4479,"Ġ180":4480,"Ġneigh":4481,"ĠAtt":4482,"ĠReview":4483,"Ġshowed":4484,"Ġofficer":4485,"Ġprogress":4486,"ĠNesb":4487,"ĠTintin":4488,"ĠWelsh":4489,"mond":4490,"mitted":4491,"orus":4492,"Ġhy":4493,"ĠSil":4494,"ĠManc":4495,"igg":4496,"igan":4497,"astic":4498,"Ġability":4499,"ĠThough":4500,"Ġthemes":4501,"ĠZhou":4502,"ĠAdm":4503,"Ġbattalion":4504,"ĠAndrew":4505,"Ġexcav":4506,"Ġcombined":4507,"ĠVaranas":4508,"Ġnewspaper":4509,"ĠCeres":4510,"ironment":4511,"ĠEmpire":4512,"ĠVaranasi":4513,"ãĤ":4514,"rect":4515,"Ġmess":4516,"Ġhorse":4517,"ĠFred":4518,"ovic":4519,"Ġqual":4520,"ĠCommun":4521,"Ġtitled":4522,"Ġportray":4523,"Ġcultural":4524,"Ġsquare":4525,"ĠOdaen":4526,"ĠApple":4527,"Ġcasualties":4528,"ĠNesbitt":4529,"Ġsays":4530,"Ġox":4531,"ĠTru":4532,"Ġreign":4533,"ĠWay":4534,"aine":4535,"Ġ49":4536,"Ġremark":4537,"Ġproduce":4538,"Ġcontinues":4539,"Ġgrass":4540,"ĠEva":4541,"Ġearliest":4542,"Ġmountain":4543,"while":4544,"ĠAngeles":4545,"Ġmentioned":4546,"Ġancient":4547,"Ġmurder":4548,"Ġcerem":4549,"ĠIllinois":4550,"ĠOdaenathus":4551,"Mont":4552,"laim":4553,"nown":4554,"inus":4555,"enant":4556,"Ġfully":4557,"Ġmission":4558,"ented":4559,"ĠCra":4560,"ĠBoy":4561,"etts":4562,"ĠDirect":4563,"ĠWash":4564,"osen":4565,"ĠJos":4566,"oper":4567,"Ġchampionship":4568,"Ġmanufact":4569,"Ġactor":4570,"Ġprint":4571,"Ġartists":4572,"Ġresulting":4573,"orpedo":4574,"Ġ1920":4575,"ĠRecords":4576,"Ġauthorities":4577,"Ġinfluenced":4578,"ĠDuMont":4579,"Ġflooding":4580,"Ġnarrow":4581,"ĠOlympic":4582,"Ġadopted":4583,"Ġdisease":4584,"Ġadvantage":4585,"ĠMogad":4586,"ĠSarnia":4587,"Ġwild":4588,"ĠCap":4589,"Ġnest":4590,"ura":4591,"Ġspl":4592,"Ġ65":4593,"ĠColon":4594,"ĠProt":4595,"Ġreports":4596,"Ġlegal":4597,"Ġbasis":4598,"ĠPerÃ³n":4599,"Ġrepresented":4600,"lies":4601,"lings":4602,"mark":4603,"Ã¨":4604,"Ġsides":4605,"Ġcandid":4606,"Ġbott":4607,"asc":4608,"Ġtoward":4609,"Ġmile":4610,"ĠPop":4611,"Ġalone":4612,"ĠNC":4613,"Ġcoming":4614,"Ġexhib":4615,"ella":4616,"Ġapparent":4617,"Ġagg":4618,"ĠNews":4619,"Ġdefense":4620,"Ġbridge":4621,"helm":4622,"Ġbegin":4623,"Ġviewers":4624,"ĠWeek":4625,"Ġletters":4626,"Ġwithdraw":4627,"Ġtower":4628,"Ġtournament":4629,"ĠMiddle":4630,"ĠThunderbird":4631,"ĠManchester":4632,"bit":4633,"writ":4634,"Ġtorpedo":4635,"Ġdirection":4636,"Ġhun":4637,"ĠSR":4638,"ĠHome":4639,"ĠHorn":4640,"ĠFour":4641,"ĠLar":4642,"ĠOcean":4643,"Ġrat":4644,"Ġkakapo":4645,"Ġyellow":4646,"Ġarmed":4647,"Ġworkers":4648,"Ġrelatively":4649,"Ġfounded":4650,"Ġalongside":4651,"Ġoccasion":4652,"Ġeffort":4653,"ĠClark":4654,"Ġnorthwest":4655,"ancy":4656,"Ġillust":4657,"ĠWashington":4658,"aith":4659,"bour":4660,"lam":4661,"lers":4662,"Ġsac":4663,"Ġcadmium":4664,"ala":4665,"Ġmechan":4666,"Ġhors":4667,"Ġlosing":4668,"ĠMax":4669,"ulate":4670,"Ġrang":4671,"iana":4672,"Ġunivers":4673,"ĠVan":4674,"Ġcontain":4675,"Ġcontact":4676,"Ġadj":4677,"ricult":4678,"Ġattended":4679,"Ġemph":4680,"Ġ1988":4681,"Ġofficially":4682,"Ġedition":4683,"Ġtried":4684,"Ġorganized":4685,"Ġcapture":4686,"Ġindividuals":4687,"Ġtransferred":4688,"Ġphysical":4689,"lim":4690,"Ġáĥ":4691,"Ġast":4692,"ĠSum":4693,"ental":4694,"adel":4695,"ĠMass":4696,"ĠHu":4697,"Ġproved":4698,"abama":4699,"gend":4700,"Ġperman":4701,"ĠAlabama":4702,"Ġneut":4703,"Ġacting":4704,"prise":4705,"ĠMean":4706,"Ġrequire":4707,"Ġwinter":4708,"Ġbehav":4709,"Ġpattern":4710,"Ġofficials":4711,"Ġmeasure":4712,"Ġsurrounding":4713,"Ġrainfall":4714,"Ġdedicated":4715,"ĠJoseph":4716,"ĠOmaha":4717,"ĠMogadish":4718,"che":4719,"can":4720,"rong":4721,"uous":4722,"inem":4723,"Ġfeder":4724,"ĠSen":4725,"Ġlives":4726,"ĠMD":4727,"ĠBu":4728,"imore":4729,"ĠDest":4730,"ĠKent":4731,"Ġenergy":4732,"Ġ64":4733,"ĠArm":4734,"Ġdoing":4735,"Ġedge":4736,"ĠEdward":4737,"Ġcouple":4738,"ij":4739,"iate":4740,"onn":4741,"Ġwa":4742,"itness":4743,"Ġfolk":4744,"Ġmind":4745,"ĠFant":4746,"ĠGall":4747,"ĠLord":4748,"Ġchief":4749,"Ġshape":4750,"Ġyour":4751,"Ġ46":4752,"izes":4753,"ibr":4754,"Ġprepar":4755,"Ġfollows":4756,"azz":4757,"ĠIndepend":4758,"Ġdesignated":4759,"Ġshortly":4760,"Ġpossibly":4761,"ĠReception":4762,"Ġsociety":4763,"Ġdivided":4764,"Ġfunction":4765,"Ġdissip":4766,"ĠHelms":4767,"Ġintensity":4768,"ĠInnis":4769,"Ġfinancial":4770,"ĠMogadishu":4771,"RA":4772,"kare":4773,"Ġfaced":4774,"Ġborder":4775,"Ġpaid":4776,"ĠBh":4777,"ĠBowl":4778,"ĠPrem":4779,"ĠLis":4780,"ĠJourn":4781,"Ġyoun":4782,"Ġincorpor":4783,"Ġimages":4784,"Ġalbums":4785,"Ġrepe":4786,"Ġ1964":4787,"Ġsimply":4788,"Ġolder":4789,"Ġlegisl":4790,"ĠHistor":4791,"Ġletter":4792,"Ġsources":4793,"ĠWilhelm":4794,"ĠMcCall":4795,"Ġeye":4796,"Ġdetermined":4797,"Ġjournal":4798,"Ġmaximum":4799,"ĠArgent":4800,"VD":4801,"eer":4802,"ux":4803,"wide":4804,"Ġaid":4805,"inated":4806,"aling":4807,"Ġmaster":4808,"enture":4809,"Ġthir":4810,"Ġonto":4811,"ĠEnd":4812,"Ġcomedy":4813,"ĠKore":4814,"Ġplaces":4815,"ipment":4816,"Ġadvert":4817,"ugby":4818,"Ġmovie":4819,"Ġbroken":4820,"Ġportion":4821,"ĠAssembly":4822,"Ġkept":4823,"Ġdoub":4824,"Ġpiece":4825,"Ġpotential":4826,"Ġsculpt":4827,"Ġemphas":4828,"Station":4829,"Åį":4830,"Ġrom":4831,"edar":4832,"Ġcities":4833,"Ġfrag":4834,"Ġdut":4835,"Ġhom":4836,"ĠFleet":4837,"ĠJup":4838,"udd":4839,"duction":4840,"Ġcharge":4841,"ĠCommission":4842,"Ġargued":4843,"Ġiron":4844,"ĠPlayStation":4845,"Ġdomestic":4846,"Ġroyal":4847,"isters":4848,"lection":4849,"ĠBir":4850,"Ġge":4851,"Ġgrew":4852,"ety":4853,"Ġstep":4854,"ĠRih":4855,"ĠFA":4856,"ĠGood":4857,"ĠNight":4858,"agan":4859,"istry":4860,"ĠKn":4861,"asty":4862,"Ġspot":4863,"Ġunk":4864,"ĠVen":4865,"Ġcontent":4866,"Ġroll":4867,"Ġ53":4868,"Ġ55":4869,"Ġcolor":4870,"Ġdepth":4871,"ĠCommon":4872,"Ġsuggests":4873,"Ġauthority":4874,"Ġprojects":4875,"Ġmanagement":4876,"Ġsites":4877,"ĠHamels":4878,"ĠValley":4879,"ĠBaltimore":4880,"ĠRihanna":4881,"Ġsay":4882,"Ġsens":4883,"Ġwor":4884,"Ġwave":4885,"Ġfung":4886,"Ġpaint":4887,"Ġhomes":4888,"Ġhospital":4889,"ĠSky":4890,"acement":4891,"lys":4892,"Ġgained":4893,"ĠWrit":4894,"ĠGreek":4895,"umes":4896,"Ġshare":4897,"Ġscience":4898,"Ġattend":4899,"Ġweak":4900,"Ġprison":4901,"Ġmuseum":4902,"Ġentrance":4903,"ertain":4904,"Ġdepart":4905,"Ġartic":4906,"ĠConstant":4907,"Ġbelong":4908,"Ġphil":4909,"Ġcausing":4910,"Ġtwice":4911,"Ġcriticized":4912,"Ġstructures":4913,"ĠPalest":4914,"ĠDjed":4915,"Ġultimately":4916,"Ġtarget":4917,"Ġschedul":4918,"Ġwebsite":4919,"rative":4920,"Ġfres":4921,"Ġmouth":4922,"Ġhyd":4923,"ĠBig":4924,"ĠPen":4925,"ĠDVD":4926,"ĠLew":4927,"Ġvess":4928,"Ġdeploy":4929,"ĠUl":4930,"Ġcontaining":4931,"Ġintellig":4932,"ĠAnth":4933,"Ġformation":4934,"Ġinterp":4935,"Ġdefence":4936,"Ġresults":4937,"Ġdebuted":4938,"ĠForest":4939,"Ġdismiss":4940,"ĠJupiter":4941,"ĠDjedkare":4942,"gn":4943,"ya":4944,"yr":4945,"Ġtail":4946,"rel":4947,"ati":4948,"atur":4949,"orter":4950,"Ġcore":4951,"Ġcricket":4952,"Ġfast":4953,"ĠMore":4954,"ĠBur":4955,"ĠHib":4956,"Ġchosen":4957,"Ġkg":4958,"ĠUs":4959,"Ġ56":4960,"Ġremix":4961,"Ġdefensive":4962,"Ġopin":4963,"Ġminer":4964,"Ġ1947":4965,"Ġbattles":4966,"Ġforeign":4967,"Ġplanet":4968,"Ġcollabor":4969,"ĠTorres":4970,"Ġlabel":4971,"more":4972,"Ġfix":4973,"Ġinch":4974,"Ġpan":4975,"ĠLock":4976,"ĠJon":4977,"ĠEastern":4978,"ĠOx":4979,"ĠChap":4980,"ĠChild":4981,"Ġ43":4982,"Ġsecurity":4983,"Ġconsecutive":4984,"ĠShort":4985,"Ġenter":4986,"Ġ120":4987,"Ġbrigade":4988,"Ġprominent":4989,"Ġorganization":4990,"Ġstanding":4991,"Ġreference":4992,"Ġgrowing":4993,"Ġanimal":4994,"Ġburied":4995,"Ġindependent":4996,"Ġgranted":4997,"Ġrejected":4998,"Ġabandoned":4999,"ML":5000,"bl":5001,"then":5002,"Ã¼":5003,"Ġsand":5004,"Ġdiam":5005,"ĠField":5006,"ĠGre":5007,"Ġven":5008,"Ġseek":5009,"ocated":5010,"ĠOnce":5011,"Ġweight":5012,"Ġcolony":5013,"Ġdoct":5014,"Ġtherefore":5015,"Ġstudent":5016,"Ġ1941":5017,"Ġvisited":5018,"Ġclaims":5019,"Ġtemple":5020,"Ġorders":5021,"ĠAirport":5022,"Ġcondition":5023,"Ġcells":5024,"white":5025,"ĠScottish":5026,"ographer":5027,"ĠApplewhite":5028,"ees":5029,"mon":5030,"mosp":5031,"Ġmic":5032,"Ġdress":5033,"ĠSo":5034,"ĠSAF":5035,"ĠCre":5036,"ĠBon":5037,"ĠBBC":5038,"iring":5039,"ĠRA":5040,"ĠNorm":5041,"Ġrisk":5042,"Ġspect":5043,"phia":5044,"Ġnewly":5045,"Ġregions":5046,"Ġseconds":5047,"Ġsingles":5048,"Ġ1987":5049,"airs":5050,"Ġbroke":5051,"Ġmoment":5052,"Ġwounded":5053,"adelphia":5054,"ĠSAFE":5055,"ao":5056,"Ġtur":5057,"Ġahead":5058,"Ġcases":5059,"Ġfear":5060,"asters":5061,"oured":5062,"Ġreaching":5063,"Ġheight":5064,"resp":5065,"ĠInstitute":5066,"Ġseems":5067,"Ġenemy":5068,"ĠIndust":5069,"Ġsolo":5070,"ushing":5071,"Ġequipment":5072,"fficient":5073,"Ġknowledge":5074,"Ġidentified":5075,"Ġnominated":5076,"ĠEgyptian":5077,"Ġtemperature":5078,"ĠBackground":5079,"Ġversions":5080,"ners":5081,"tav":5082,"Ġtun":5083,"Ġaired":5084,"Ġcust":5085,"Ġcouncil":5086,"Ġbud":5087,"Ġmales":5088,"ading":5089,"ĠBan":5090,"ĠDue":5091,"ĠJur":5092,"Ġunique":5093,"Ġ41":5094,"Ġ1984":5095,"Ġ1989":5096,"Ġ1972":5097,"Ġreturning":5098,"Ġsupporting":5099,"Ġelement":5100,"ĠBefore":5101,"Ġcampus":5102,"Ġopposed":5103,"urban":5104,"Ġproblem":5105,"ĠCroatia":5106,"Ġenvironment":5107,"ĠFurther":5108,"Le":5109,"cy":5110,"mun":5111,"Ġtim":5112,"ero":5113,"Ġfired":5114,"Ġfox":5115,"ishes":5116,"ĠSub":5117,"ads":5118,"ĠMike":5119,"ette":5120,"oted":5121,"Ġatmosp":5122,"Ġanalysis":5123,"Ġhere":5124,"ĠEach":5125,"ĠKir":5126,"Ġunp":5127,"Ġ54":5128,"Ġperfect":5129,"Ġteacher":5130,"Ġ1985":5131,"Ġoperated":5132,"ĠCarl":5133,"ĠOrigin":5134,"Ġlooking":5135,"Ġincreasingly":5136,"Ġliterature":5137,"ĠOperation":5138,"Ġscholars":5139,"ĠEntertain":5140,"Ġstraight":5141,"Ġunknown":5142,"uct":5143,"Ġtheory":5144,"Ġboy":5145,"alle":5146,"stream":5147,"aming":5148,"Ġec":5149,"ĠMort":5150,"ĠId":5151,"ider":5152,"ĠHMS":5153,"ĠRy":5154,"ĠRet":5155,"Ġalter":5156,"ighth":5157,"ĠKar":5158,"Ġcompr":5159,"Ġweather":5160,"Ġwrites":5161,"Ġdefin":5162,"Ġacad":5163,"Ġbelieve":5164,"Ġbreeding":5165,"Ġexplained":5166,"Ġcommonly":5167,"ĠBarrow":5168,"Ġhistorian":5169,"Ġideas":5170,"Ġsettlement":5171,"ĠSwed":5172,"Ġburns":5173,"ĠCardiff":5174,"Ġconfirmed":5175,"Ġmolec":5176,"eg":5177,"uge":5178,"ych":5179,"Ġod":5180,"Ġoil":5181,"ato":5182,"ĠMic":5183,"Ġstations":5184,"ĠPublic":5185,"ĠNever":5186,"aved":5187,"ĠEven":5188,"Ġvo":5189,"ĠKey":5190,"ĠStan":5191,"ĠVill":5192,"Ġarrest":5193,"Ġherself":5194,"ĠOnly":5195,"Ġconsisted":5196,"Ġsinging":5197,"Ġ1944":5198,"Ġlandfall":5199,"ĠClass":5200,"Ġadvanced":5201,"ĠDevelop":5202,"Ġsystems":5203,"Ġparliament":5204,"Ġcriticism":5205,"Ġfemales":5206,"ĠMichigan":5207,"ĠKeats":5208,"Ġstrike":5209,"ĠPhiladelphia":5210,"Ġproperty":5211,"ĠCongress":5212,"Ġeconomic":5213,"Ġcontrolled":5214,"hu":5215,"ket":5216,"alions":5217,"Ġpict":5218,"asure":5219,"ĠHart":5220,"ĠRog":5221,"ĠGi":5222,"ĠGord":5223,"ĠLl":5224,"illo":5225,"Ġdeities":5226,"Ġimag":5227,"weet":5228,"awa":5229,"Ġexped":5230,"Ġcreation":5231,"Ġleader":5232,"Ġ130":5233,"ĠWilliams":5234,"ĠMounted":5235,"Ġgrowth":5236,"Ġmaintained":5237,"Ġpieces":5238,"Ġfailure":5239,"Ġdropped":5240,"Ġsemi":5241,"ĠAddition":5242,"ĠMeanwhile":5243,"Ġawards":5244,"inity":5245,"inary":5246,"ena":5247,"Ġfict":5248,"Ġmob":5249,"ĠAp":5250,"ĠMatt":5251,"ĠBas":5252,"Ġgar":5253,"ĠRos":5254,"ĠDen":5255,"ĠDutch":5256,"unic":5257,"rak":5258,"ĠGard":5259,"ĠLu":5260,"ĠLuc":5261,"Ġcompar":5262,"Ġarrang":5263,"Ġresemb":5264,"Ġ57":5265,"ĠAlbum":5266,"hips":5267,"Ġfilmed":5268,"ĠLeg":5269,"fully":5270,"Ġguest":5271,"Ġkilling":5272,"Ġfreeway":5273,"Ġpitched":5274,"Ġhonor":5275,"Ġflying":5276,"Ġinjury":5277,"Ġfederal":5278,"ias":5279,"Ã¶":5280,"Ġtact":5281,"Ġtask":5282,"onom":5283,"Ġsen":5284,"Ġbit":5285,"Ġmist":5286,"ĠBost":5287,"ĠDer":5288,"ĠDis":5289,"ĠDun":5290,"ĠGh":5291,"ĠNathan":5292,"antly":5293,"ieval":5294,"ĠItaly":5295,"Ġserve":5296,"ampion":5297,"Ġ600":5298,"Ġactress":5299,"Ġretired":5300,"ashion":5301,"Ġmatter":5302,"ĠGuard":5303,"Ġrestaur":5304,"ĠAndy":5305,"Ġbelief":5306,"Ġhumans":5307,"ĠAbu":5308,"Ġspeak":5309,"ĠSteve":5310,"Ġboats":5311,"Ġreligion":5312,"Ġpromoted":5313,"Ġvalue":5314,"Ġmounted":5315,"ĠMinister":5316,"lusion":5317,"ĠJeff":5318,"Ġrapidly":5319,"Ġbattery":5320,"Ġweapons":5321,"Ġhorses":5322,"cription":5323,"jo":5324,"kin":5325,"Ġut":5326,"Ġselling":5327,"Ġbid":5328,"Ġbank":5329,"roph":5330,"iced":5331,"Ġham":5332,"ĠAst":5333,"ĠCold":5334,"ĠMod":5335,"uli":5336,"ĠLes":5337,"ersey":5338,"ager":5339,"alls":5340,"ieut":5341,"Ġagricult":5342,"Ġflank":5343,"Ġcolumn":5344,"ĠAmericans":5345,"Ġdescription":5346,"Ġinvasion":5347,"ĠConference":5348,"Ġpasses":5349,"Ġpassing":5350,"Ġpublication":5351,"Ġprotest":5352,"Ġcougar":5353,"Ġsignificantly":5354,"Ġpromotion":5355,"Ġconnected":5356,"Ġrecognized":5357,"Ġcreating":5358,"Ġmultiple":5359,"Ġclean":5360,"Ġpremi":5361,"Ġaccompan":5362,"Ġprepared":5363,"cop":5364,"fort":5365,"han":5366,"haps":5367,"Äĩ":5368,"rete":5369,"render":5370,"Ġsought":5371,"itable":5372,"Ġbats":5373,"Ġmo":5374,"Ġdata":5375,"ĠMur":5376,"ĠMem":5377,"ĠFinal":5378,"ĠWat":5379,"ĠWork":5380,"ĠInst":5381,"Ġchose":5382,"ĠVideo":5383,"icks":5384,"amese":5385,"Ġstarts":5386,"Ġfamous":5387,"Ġdeliver":5388,"Ġpopularity":5389,"Ġproducers":5390,"chers":5391,"Ġvolume":5392,"Ġwalls":5393,"ĠSlam":5394,"Ġregarded":5395,"Ġstrengthen":5396,"Ġreaction":5397,"Ġsilver":5398,"Ġaspects":5399,"Ġnucleus":5400,"Ġseventh":5401,"Ġnecessary":5402,"Ġscheduled":5403,"ca":5404,"hi":5405,"load":5406,"yth":5407,"Ġdrop":5408,"Ġreform":5409,"ĠAri":5410,"ĠCole":5411,"Ġlaid":5412,"lying":5413,"olved":5414,"ote":5415,"Ġbeaut":5416,"ĠGulf":5417,"ĠLine":5418,"ĠLiber":5419,"Ġvirt":5420,"Ġrise":5421,"Ġrival":5422,"Ġsend":5423,"ogen":5424,"Ġnews":5425,"Ġ96":5426,"Ġ1981":5427,"Ġlanding":5428,"heless":5429,"Ġstrik":5430,"ĠVietnamese":5431,"Ġsustained":5432,"Ġphilos":5433,"hm":5434,"och":5435,"uan":5436,"Ġouter":5437,"Ġfat":5438,"Ġfought":5439,"Ġdated":5440,"ĠSund":5441,"standing":5442,"ĠMu":5443,"ĠHaven":5444,"ĠNaz":5445,"ĠObs":5446,"ifying":5447,"Ġspring":5448,"ips":5449,"ocked":5450,"venue":5451,"ĠAdv":5452,"ĠUSA":5453,"Ġreflect":5454,"ĠPho":5455,"Ġdrive":5456,"ĠAmong":5457,"Ġcastle":5458,"Ġcurrently":5459,"Ġemployed":5460,"ĠCambod":5461,"Äģda":5462,"Ġfamilies":5463,"ĠThunderbirds":5464,"Ġbudget":5465,"rum":5466,"yt":5467,"à¸":5468,"Ġtree":5469,"heastern":5470,"ini":5471,"onent":5472,"Ġsave":5473,"Ġpul":5474,"Ġmort":5475,"ĠAthlet":5476,"add":5477,"ivity":5478,"iments":5479,"ĠDomin":5480,"ĠGirl":5481,"Ġrating":5482,"Ġexec":5483,"Ġcontained":5484,"Ġarms":5485,"Ġrow":5486,"Ġ700":5487,"Ġunderground":5488,"orney":5489,"Ġends":5490,"ologists":5491,"hess":5492,"insula":5493,"Ġ179":5494,"Ġphase":5495,"Ġ1939":5496,"Ġtrial":5497,"Ġfacilities":5498,"Ġfrequently":5499,"ĠOxford":5500,"ĠEntertainment":5501,"TC":5502,"ii":5503,"lines":5504,"rig":5505,"sw":5506,"Ġwed":5507,"rog":5508,"Ġdial":5509,"ĠCa":5510,"Ġla":5511,"ĠHan":5512,"Ġbey":5513,"thur":5514,"ĠDar":5515,"unction":5516,"ĠFre":5517,"ĠFriend":5518,"ĠFestival":5519,"ĠGreg":5520,"ĠNH":5521,"ĠEll":5522,"Ġexecutive":5523,"sea":5524,"iance":5525,"aph":5526,"Ġunus":5527,"Ġcomputer":5528,"Ġcontributed":5529,"Ġarc":5530,"Ġprefer":5531,"Ġcollected":5532,"Ġactors":5533,"Ġexpress":5534,"Ġ1942":5535,"Ġsimple":5536,"Ġallows":5537,"Ġnegative":5538,"borough":5539,"ĠStudios":5540,"Ġdegree":5541,"ĠRevolution":5542,"Ġbottom":5543,"ĠGordon":5544,"iable":5545,"kins":5546,"ridge":5547,"Ġcited":5548,"Ġcraft":5549,"arian":5550,"Ġhor":5551,"ĠSus":5552,"ĠChel":5553,"ayer":5554,"ĠRail":5555,"unte":5556,"ĠNBA":5557,"Ġshaped":5558,"sey":5559,"ĠStep":5560,"Ġsports":5561,"Ġoverl":5562,"angers":5563,"Ġ61":5564,"Ġ73":5565,"Ġ95":5566,"Ġopera":5567,"Ġ1918":5568,"Ġeffective":5569,"Ġentirely":5570,"Ġanimals":5571,"ĠCoast":5572,"Ġimproved":5573,"Ġsubsequent":5574,"ĠBetween":5575,"ĠTurner":5576,"ĠCrazy":5577,"ĠPremier":5578,"Ġfictional":5579,"ieutenant":5580,"Ġbeyond":5581,"ez":5582,"iot":5583,"mission":5584,"Ã¤":5585,"arp":5586,"Ġmig":5587,"ĠBru":5588,"Ġgain":5589,"Ġgives":5590,"ĠRel":5591,"agement":5592,"Ġnotable":5593,"perial":5594,"Ġrecently":5595,"ĠAlf":5596,"Ġ62":5597,"Ġ97":5598,"Ġ800":5599,"ĠMario":5600,"Ġtrain":5601,"Ġ1968":5602,"Ġ1969":5603,"Ġextensive":5604,"ancing":5605,"ĠProv":5606,"Ġvisual":5607,"Ġmedical":5608,"Ġfinding":5609,"Ġmyth":5610,"Ġboat":5611,"Ġencoura":5612,"ĠBoise":5613,"Ġgradually":5614,"ĠTurk":5615,"ĠMartin":5616,"Ġkilometres":5617,"ĠToday":5618,"ĠLewis":5619,"ĠBoston":5620,"chen":5621,"iences":5622,"rine":5623,"Ġsail":5624,"atus":5625,"isy":5626,"Ġbass":5627,"rot":5628,"Ġdates":5629,"ĠCle":5630,"ĠCub":5631,"Ġegg":5632,"eck":5633,"lywood":5634,"ĠBart":5635,"Ġstages":5636,"ĠRod":5637,"ĠFox":5638,"ules":5639,"ĠJain":5640,"Ġchair":5641,"ĠKang":5642,"ĠUN":5643,"ĠStone":5644,"ĠHead":5645,"aret":5646,"Ġfinals":5647,"rence":5648,"Ġfloor":5649,"Ġmush":5650,"Ġsecondary":5651,"Ġsevere":5652,"Ġexpanded":5653,"Ġ1975":5654,"ĠBridge":5655,"Ġoccas":5656,"ĠJuan":5657,"ycle":5658,"Ġserving":5659,"Ġantimony":5660,"ĠBarb":5661,"Ġsurvey":5662,"Ġprograms":5663,"Ġglob":5664,"ĠCrown":5665,"ĠPeople":5666,"ĠSystem":5667,"ĠRussian":5668,"Ã¡nh":5669,"ĠDaniel":5670,"eed":5671,"iations":5672,"yson":5673,"eda":5674,"itan":5675,"Ġbow":5676,"Ġbul":5677,"lee":5678,"ĠAer":5679,"ĠIgu":5680,"Ġgreen":5681,"Ġitems":5682,"Ġcomes":5683,"opp":5684,"illing":5685,"Ġchur":5686,"usted":5687,"Ġunf":5688,"Ġcomposition":5689,"Ġarran":5690,"outs":5691,"Ġcenturies":5692,"Ġ72":5693,"Ġ85":5694,"ansas":5695,"Ġ1965":5696,"Ġ1974":5697,"ographic":5698,"Ġexclus":5699,"Ġfinds":5700,"ĠEvita":5701,"Ġjoin":5702,"ĠMagazine":5703,"Ġoccupied":5704,"ĠBelg":5705,"ĠUpon":5706,"set":5707,"thes":5708,"uate":5709,"erts":5710,"Ġfaith":5711,"Ġdaily":5712,"ompl":5713,"Ġnaval":5714,"ĠMen":5715,"ecess":5716,"ĠBand":5717,"ĠGab":5718,"ĠJac":5719,"ĠJud":5720,"izations":5721,"ublin":5722,"Ġdecades":5723,"Ġ81":5724,"Ġsole":5725,"ĠIsab":5726,"ĠCommander":5727,"Ġdeaths":5728,"Ġsuccessfully":5729,"Ġlosses":5730,"ĠKhÃ¡nh":5731,"ĠMacLe":5732,"Ġnegot":5733,"Ġtreatment":5734,"Ġslowly":5735,"Ġindependence":5736,"Ġcalc":5737,"Ġcommissioned":5738,"Ġexperienced":5739,"win":5740,"Ġaer":5741,"ĠAvenue":5742,"ĠCD":5743,"amy":5744,"Ġeth":5745,"ĠRome":5746,"ĠFar":5747,"istan":5748,"Ġ71":5749,"Ġ94":5750,"Ġflag":5751,"Ġcool":5752,"Ġ164":5753,"Ġdidn":5754,"ĠProject":5755,"Ġtrip":5756,"Ġpersonnel":5757,"Ġsentence":5758,"Ġengaged":5759,"Ġcaptain":5760,"ĠSongs":5761,"ĠJamal":5762,"Ġpurchased":5763,"Ġpolicy":5764,"ĠLiu":5765,"Ġbenef":5766,"aire":5767,"Å¡":5768,"Ġlabor":5769,"Ġeas":5770,"ĠMot":5771,"ĠBrian":5772,"Ġstreet":5773,"ĠPers":5774,"Ġbeach":5775,"ĠRol":5776,"ĠDublin":5777,"ĠGA":5778,"anda":5779,"ava":5780,"Ġchorus":5781,"Ġnothing":5782,"ĠChart":5783,"Ġaccompl":5784,"Ġcoal":5785,"anny":5786,"ĠSha":5787,"Ġsupply":5788,"ĠScience":5789,"Ġ160":5790,"Ġconcrete":5791,"Ġ1946":5792,"Ġsouthwest":5793,"Ġprotagon":5794,"Ġworldwide":5795,"Ġbegun":5796,"Ġelimin":5797,"Ġpropos":5798,"Ġdeclined":5799,"Ġreasons":5800,"ategory":5801,"Ġbriefly":5802,"ĠTennyson":5803,"ĠTemple":5804,"ĠThroughout":5805,"ĠDistrict":5806,"Ġfresh":5807,"ĠIguan":5808,"town":5809,"Ġtheat":5810,"aton":5811,"ingly":5812,"ela":5813,"Ġnor":5814,"ĠMov":5815,"ĠBull":5816,"Ġgas":5817,"iration":5818,"uting":5819,"utation":5820,"ĠDown":5821,"ĠIng":5822,"Ġincident":5823,"ĠAlso":5824,"Ġmoves":5825,"ĠLeon":5826,"pring":5827,"Ġleaders":5828,"Ġdrawn":5829,"ĠTrack":5830,"Ġimportance":5831,"Ġroads":5832,"ĠSimone":5833,"Ġsumm":5834,"Ġescape":5835,"ĠGovernor":5836,"Ġnormal":5837,"Ġplatform":5838,"bo":5839,"born":5840,"Ġ#":5841,"Ġtall":5842,"Ġtend":5843,"erc":5844,"onic":5845,"Ġwitness":5846,"Ġpet":5847,"Ġdance":5848,"Ġhired":5849,"amin":5850,"ĠBern":5851,"ĠBaby":5852,"ĠRay":5853,"Ġisol":5854,"ĠJes":5855,"Ġrac":5856,"Ġplum":5857,"quake":5858,"Ġspons":5859,"elli":5860,"rug":5861,"rupt":5862,"Ġdecade":5863,"ooking":5864,"ĠMaria":5865,"Ġflu":5866,"Ġfoundation":5867,"Ġlongest":5868,"Ġ1966":5869,"Ġ1952":5870,"Ġguard":5871,"Ġ1936":5872,"ĠProduction":5873,"Ġ1919":5874,"Ġpossibility":5875,"ĠBrook":5876,"ĠTeam":5877,"Ġdelay":5878,"Ġarrival":5879,"Ġchapter":5880,"Ġbillion":5881,"Ġparticipated":5882,"Ġfirm":5883,"Ġunsu":5884,"ĠArea":5885,"Ġenjoyed":5886,"Ġresponded":5887,"ĠFamily":5888,"Ġpaintings":5889,"respond":5890,"ĠDevelopment":5891,"Ġsenior":5892,"Ġaccompanied":5893,"ĠMacLeod":5894,"30":5895,"BS":5896,"ls":5897,"rons":5898,"isers":5899,"ĠBoard":5900,"Ġstret":5901,"ĠRow":5902,"ĠRox":5903,"ĠDream":5904,"ĠFive":5905,"osa":5906,"Ġheard":5907,"Ġring":5908,"ichol":5909,"ĠUlys":5910,"ĠChains":5911,"ĠAli":5912,"ĠAlbert":5913,"Ġjack":5914,"ĠMarl":5915,"Ġvert":5916,"Ġsubs":5917,"ifications":5918,"Ġsetting":5919,"Ġ110":5920,"Ġ177":5921,"Ġdeveloping":5922,"ĠDev":5923,"Ġoldest":5924,"Ġparalle":5925,"Äģn":5926,"ÃŃa":5927,"Ġsquad":5928,"Ġagreement":5929,"Ġdollar":5930,"hetic":5931,"Ġroughly":5932,"ĠAdmir":5933,"ĠSummer":5934,"ĠUlysses":5935,"OC":5936,"chest":5937,"oe":5938,"Ġi":5939,"ano":5940,"Ġpal":5941,"Ġdog":5942,"ĠTim":5943,"ĠBor":5944,"ĠBond":5945,"imet":5946,"ĠWall":5947,"ĠInt":5948,"Ġchoice":5949,"pty":5950,"essed":5951,"Ġ77":5952,"Ġremn":5953,"Ġconsists":5954,"Ġdecre":5955,"Ġaccident":5956,"Ġcalls":5957,"Ġtransit":5958,"Ġadding":5959,"Ġpopulations":5960,"Ġemp":5961,"Ġ1973":5962,"ĠConst":5963,"Ġlasted":5964,"espread":5965,"ĠPhill":5966,"Ġtowns":5967,"Ġcombination":5968,"Ġtechnology":5969,"Ġexistence":5970,"Ġregarding":5971,"Ġviolence":5972,"Ġdominated":5973,"Ġpoetry":5974,"Ġsymbol":5975,"ĠFrancisc":5976,"Ġathletes":5977,"ĠDougl":5978,"ĠAnthony":5979,"ĠInstead":5980,"ĠTurkish":5981,"aver":5982,"come":5983,"rant":5984,"war":5985,"Ġign":5986,"itors":5987,"Ġfellow":5988,"ĠSk":5989,"ĠTheatre":5990,"ĠBishop":5991,"usal":5992,"Ġaltar":5993,"Ġcomic":5994,"Ġseat":5995,"Ġnote":5996,"Ġcontrib":5997,"Ġreserv":5998,"Ġ59":5999,"ressive":6000,"Ġcommittee":6001,"ĠAnonymous":6002,"Ġundert":6003,"Ġfilming":6004,"Ġassass":6005,"Ġsubmar":6006,"Ġacres":6007,"Ġdoor":6008,"Ġtrav":6009,"Ġperforming":6010,"Ġ1967":6011,"ĠConn":6012,"ructure":6013,"ĠCarib":6014,"Ġclubs":6015,"Ġcompetitions":6016,"ĠBraz":6017,"Ġcollege":6018,"Ġassociation":6019,"Ġclosely":6020,"ĠOde":6021,"Ġexisting":6022,"Ġapplied":6023,"Ġhabitat":6024,"ĠRadio":6025,"Ġweakened":6026,"ĠHornung":6027,"Ġunsuccess":6028,"vens":6029,"Ġtrou":6030,"Ġtells":6031,"Ġfashion":6032,"isf":6033,"Ġps":6034,"ĠAston":6035,"ĠAML":6036,"iling":6037,"ĠBi":6038,"ĠLife":6039,"agre":6040,"agle":6041,"iston":6042,"ĠKenn":6043,"Ġreconst":6044,"Ġroof":6045,"Ġperhaps":6046,"Ġdescend":6047,"Ġ66":6048,"Ġ98":6049,"Ġtruth":6050,"ĠMarc":6051,"Ġneither":6052,"Ġsubstant":6053,"Ġ175":6054,"Ġdistingu":6055,"Ġprovides":6056,"Ġ1914":6057,"Ġbattalions":6058,"Ġserves":6059,"Ġcapable":6060,"Ġgreatly":6061,"Ġappeal":6062,"ĠMountain":6063,"Ġcorrect":6064,"Ġcorrespond":6065,"Ġlearned":6066,"Ġpainting":6067,"Ġarchaeological":6068,"Ġderived":6069,"Ġreinforce":6070,"Ġpilot":6071,"Ġdetails":6072,"Ġpurpose":6073,"Ġadministration":6074,"Ġopportunity":6075,"Ġceremony":6076,"Ġoccasionally":6077,"ĠCaribbe":6078,"OT":6079,"burg":6080,"var":6081,"ona":6082,"Ġsom":6083,"Ġsort":6084,"Ġfilled":6085,"Ġbought":6086,"Ġhyp":6087,"entially":6088,"Ġthing":6089,"Ġones":6090,"ĠHon":6091,"ĠDota":6092,"rait":6093,"ĠOh":6094,"Ġsufficient":6095,"ĠInc":6096,"ĠStew":6097,"ountain":6098,"Ġsupposed":6099,"Ġexpans":6100,"Ġreceiving":6101,"Ġinvited":6102,"Ġheaded":6103,"Ġeditor":6104,"Ġprotection":6105,"Ġstoryline":6106,"ĠBroad":6107,"Ġbasket":6108,"Ġspeaking":6109,"Ġskin":6110,"Ġencounter":6111,"Ġhousehold":6112,"Ġtechnique":6113,"Ġneck":6114,"Ġinnings":6115,"ĠArchae":6116,"Ġvehicles":6117,"Ġdissipated":6118,"ĠChelsea":6119,"Ġchurches":6120,"ĠDouglas":6121,"ĠCaribbean":6122,"GN":6123,"RE":6124,"VN":6125,"la":6126,"Ġaim":6127,"inj":6128,"oral":6129,"Ġcit":6130,"Ġcra":6131,"Ġcrop":6132,"Ġdrew":6133,"Ġhat":6134,"Ġeu":6135,"ĠMel":6136,"uri":6137,"ĠDet":6138,"ĠLow":6139,"ĠLieutenant":6140,"ĠJay":6141,"agn":6142,"ĠERA":6143,"Ġseg":6144,"abil":6145,"pton":6146,"ĠVol":6147,"Ġevac":6148,"ropri":6149,"ĠAsia":6150,"Ġacid":6151,"Ġgoes":6152,"Ġreceive":6153,"Ġ1945":6154,"Ġ1971":6155,"ĠWhat":6156,"Ġanything":6157,"Ġclassified":6158,"Ġtypical":6159,"Ġviewed":6160,"ĠAbout":6161,"ĠPerry":6162,"Ġsurvived":6163,"Ġislands":6164,"iece":6165,"Ġwidespread":6166,"idden":6167,"Ġmassive":6168,"Ġmotion":6169,"ĠCardinal":6170,"Ġstopped":6171,"ĠMaeda":6172,"Ġdrama":6173,"ĠGeorgian":6174,"Ġsoutheast":6175,"ĠFreder":6176,"Ġastron":6177,"ĠConstantine":6178,"ĠHibari":6179,"lik":6180,"rist":6181,"ruli":6182,"tty":6183,"ÅĤ":6184,"Ġopt":6185,"Ġfuel":6186,"ĠAge":6187,"ilton":6188,"Ġload":6189,"acity":6190,"ĠMTV":6191,"ola":6192,"ĠHin":6193,"ĠHard":6194,"ĠRun":6195,"ĠRio":6196,"ĠRÃ©":6197,"Ġwhy":6198,"ĠWind":6199,"opes":6200,"ighter":6201,"Ġcho":6202,"ĠKil":6203,"Ġshared":6204,"apes":6205,"iege":6206,"Ġrob":6207,"ĠYe":6208,"iously":6209,"Ġflights":6210,"Ġsubt":6211,"Ġsoft":6212,"anned":6213,"Ġ1982":6214,"Ġ176":6215,"Ġdistrict":6216,"ĠQedar":6217,"Ġ250":6218,"ĠPrinc":6219,"Ġauthors":6220,"Ġiniti":6221,"ĠRomani":6222,"ĠSimon":6223,"Ġsettlers":6224,"Ġmissing":6225,"glades":6226,"ĠGolden":6227,"Ġtrying":6228,"Ġacquired":6229,"Ġdigital":6230,"Ġconverted":6231,"Ġsafety":6232,"ĠFantasy":6233,"ibrary":6234,"Ġrepeated":6235,"cer":6236,"vis":6237,"Ġice":6238,"inosaur":6239,"Ġcab":6240,"Ġdub":6241,"stances":6242,"Ġlin":6243,"idges":6244,"ivered":6245,"ĠPatt":6246,"ĠGil":6247,"ĠGang":6248,"ĠGram":6249,"ĠJones":6250,"rier":6251,"iful":6252,"Ġrich":6253,"Ġchannel":6254,"Ġexact":6255,"ĠStadium":6256,"Ġspacing":6257,"Ġlegend":6258,"Ġroutes":6259,"mann":6260,"Ġfinish":6261,"ilding":6262,"issance":6263,"Ġlocations":6264,"Ġ1976":6265,"Ġ1956":6266,"Ġ1913":6267,"Ġ1916":6268,"Ġexperiment":6269,"reme":6270,"Ġglass":6271,"Ġwatched":6272,"Ġholding":6273,"Ġbaseball":6274,"Ġrebu":6275,"Ġfunding":6276,"ĠMoz":6277,"Ġfocused":6278,"Ġplanning":6279,"ĠOslo":6280,"Ġdepicted":6281,"ĠSurv":6282,"ĠHoly":6283,"Ġinstrument":6284,"ĠHaiti":6285,"Ġsucceeded":6286,"Ġpermanent":6287,"ĠVenus":6288,"Ġopinion":6289,"ĠShortly":6290,"Ġatmosphere":6291,"ĠPhoen":6292,"Ġwedding":6293,"Ġarranged":6294,"ĠIguanodon":6295,"ĠBrazil":6296,"Ġurban":6297,"Ġtable":6298,"Ġwick":6299,"Ġbowl":6300,"anth":6301,"Ġpack":6302,"Ġmut":6303,"ĠMah":6304,"ĠFel":6305,"ĠFire":6306,"ĠGra":6307,"ĠLenn":6308,"Ġchance":6309,"ĠKat":6310,"apers":6311,"Ġresident":6312,"Ġrose":6313,"Ġoverse":6314,"Ġknew":6315,"Ġdecline":6316,"ĠArts":6317,"oba":6318,"Ġcharter":6319,"Ġassemb":6320,"Ġdefined":6321,"Ġ112":6322,"Ġ1943":6323,"Ġrevolution":6324,"Ġproviding":6325,"ĠAllied":6326,"Ġprotect":6327,"Ġreality":6328,"ĠSimilar":6329,"Ġcreator":6330,"Ġpenalty":6331,"Ġearthquake":6332,"Ġrif":6333,"Ġcredited":6334,"ĠSecretary":6335,"LI":6336,"pass":6337,"Ġtied":6338,"Ġsun":6339,"Ġwins":6340,"Ġdating":6341,"ĠSnow":6342,"uration":6343,"ĠBul":6344,"ĠIGN":6345,"ĠHell":6346,"ĠHomer":6347,"ĠRangers":6348,"ĠGully":6349,"Ġrub":6350,"ĠChronic":6351,"Ġpregn":6352,"formation":6353,"Ġ87":6354,"Ġsupplies":6355,"Ġ1963":6356,"Ġdownload":6357,"Ã©t":6358,"Ġairport":6359,"Ġmoder":6360,"Ġheads":6361,"Ġways":6362,"Ġexplos":6363,"ĠAbb":6364,"Ġdelivered":6365,"ĠStevens":6366,"Ġlaws":6367,"Ġtechnical":6368,"ĠMorrison":6369,"Ġseparated":6370,"Ġrenamed":6371,"ĠEverglades":6372,"evo":6373,"Ġthousands":6374,"ĠAdditionally":6375,"ĠHindu":6376,"SB":6377,"crib":6378,"gÃ©":6379,"hat":6380,"min":6381,"Ġsan":6382,"Ġfair":6383,"Ġdry":6384,"ĠTop":6385,"ĠSound":6386,"ador":6387,"Ġgal":6388,"Ġrural":6389,"Ġselect":6390,"essing":6391,"ears":6392,"ĠUTC":6393,"ube":6394,"okes":6395,"Ġenl":6396,"Ġteaching":6397,"issipp":6398,"Ġsecure":6399,"attle":6400,"ĠArthur":6401,"Ġcolour":6402,"Ġregime":6403,"Ġemperor":6404,"ĠCommittee":6405,"ĠAustralians":6406,"Ġturning":6407,"Ġcommanded":6408,"Ġopposition":6409,"ivalent":6410,"Ġcourts":6411,"Ġsurviv":6412,"ĠMississipp":6413,"Ġcertified":6414,"ipping":6415,"ĠWalter":6416,"Ġeyes":6417,"Ġassistance":6418,"Ġremainder":6419,"ĠHollywood":6420,"Ġjourney":6421,"Ġindicate":6422,"Ġconsisting":6423,"ĠBradford":6424,"ĠAlexander":6425,"ĠOffice":6426,"Ġpowers":6427,"ĠColumbia":6428,"ĠTruj":6429,"ĠSunday":6430,"ĠFriends":6431,"oh":6432,"Ġaware":6433,"erted":6434,"rell":6435,"Ġcard":6436,"Ġpup":6437,"Ġdrug":6438,"Ġharm":6439,"ĠTel":6440,"ĠCop":6441,"Ġlit":6442,"Ġlov":6443,"ĠMul":6444,"ĠPu":6445,"ĠRon":6446,"ĠNative":6447,"estone":6448,"opher":6449,"Ġsud":6450,"ardo":6451,"aked":6452,"Ġimpr":6453,"Ġattached":6454,"ĠMarine":6455,"Ġquite":6456,"Ġhighlight":6457,"Ġnoisy":6458,"Ġsurrender":6459,"Ġaddress":6460,"Ġ1978":6461,"Ġdisturb":6462,"Ġoccurs":6463,"Ġ1953":6464,"Ġcamps":6465,"Ġturns":6466,"Ġviews":6467,"Ġreferences":6468,"Ġvalley":6469,"ĠMaryland":6470,"ĠMontana":6471,"Ġeconomy":6472,"Ġestablishment":6473,"ĠCroatian":6474,"ĠDemocr":6475,"ĠCritical":6476,"ĠDirector":6477,"Ġhydro":6478,"ĠTrujillo":6479,"dal":6480,"ients":6481,"nest":6482,"rin":6483,"ture":6484,"ĪĴ":6485,"Ġfan":6486,"Ġbranch":6487,"ĠSav":6488,"entions":6489,"ĠML":6490,"ĠMid":6491,"ĠMaster":6492,"othes":6493,"Ġstore":6494,"ĠDom":6495,"ĠFish":6496,"uma":6497,"agues":6498,"Ġpros":6499,"Ġvic":6500,"ewhere":6501,"ĠâĪĴ":6502,"Ġleaves":6503,"Ġresist":6504,"ĠAlan":6505,"Ġfinishing":6506,"ĠAnton":6507,"icted":6508,"Ġinterior":6509,"itsune":6510,"Ġmonarch":6511,"Ġstudied":6512,"Ġreputation":6513,"Ġleads":6514,"Ġdistribution":6515,"ception":6516,"Ġsuccessor":6517,"Ġreplace":6518,"ĠStef":6519,"ĠExp":6520,"Ġproducing":6521,"Ġcircum":6522,"Ġmissions":6523,"Ġdenied":6524,"Ġimmig":6525,"Ġshooting":6526,"Ġadapted":6527,"Ġmethods":6528,"Ġpuzz":6529,"ĠCharlie":6530,"ĠEngineer":6531,"Ġportrayed":6532,"ĠStephen":6533,"ĠRoxas":6534,"ĠMississippi":6535,"bur":6536,"break":6537,"iÄĩ":6538,"rations":6539,"Ã¸":6540,"real":6541,"Ġworth":6542,"Ġfranch":6543,"Ġbaby":6544,"ĠSap":6545,"Ġlic":6546,"Ġlane":6547,"ĠHug":6548,"ĠPress":6549,"ĠDi":6550,"ĠFlow":6551,"ĠNBC":6552,"rien":6553,"ĠEdu":6554,"aka":6555,"onder":6556,"Ġoffense":6557,"Ġprey":6558,"Ġupd":6559,"Ġ69":6560,"Ġgameplay":6561,"Ġentry":6562,"Ġentering":6563,"Ġobt":6564,"ĠPlunk":6565,"Ġcharacteristics":6566,"Ġ1915":6567,"Ġprotected":6568,"ĠRecording":6569,"Ġwindow":6570,"ĠWithin":6571,"Ġpolitics":6572,"Ġcrime":6573,"Ġgetting":6574,"ĠActivision":6575,"Ġmotor":6576,"Ġmaintain":6577,"ĠHoward":6578,"senal":6579,"ĠSamuel":6580,"Ġworst":6581,"Ġintelligence":6582,"Ġdismissed":6583,"aug":6584,"kh":6585,"ni":6586,"ns":6587,"Ġtell":6588,"inals":6589,"orer":6590,"orters":6591,"Ġcry":6592,"Ġcrown":6593,"Ġpound":6594,"Ġtomb":6595,"Ġdie":6596,"elve":6597,"amber":6598,"acent":6599,"otes":6600,"Ġstones":6601,"ĠRidge":6602,"ĠDNA":6603,"ĠWy":6604,"ĠLoc":6605,"ĠNether":6606,"ctions":6607,"Ġvon":6608,"Ġru":6609,"Ġexerc":6610,"ĠKel":6611,"Ġnoting":6612,"ender":6613,"Ġresour":6614,"Ġjoint":6615,"Ġattributed":6616,"Ġshel":6617,"Ġknots":6618,"ĠMarsh":6619,"Ġcharges":6620,"Ġretire":6621,"Ġmonument":6622,"Ġclasses":6623,"Ġcapacity":6624,"Ġbasin":6625,"Ġelectric":6626,"Ġnovels":6627,"Ġhistoric":6628,"ĠEliz":6629,"Ġcharts":6630,"Ġintroduction":6631,"Ġinterested":6632,"ĠCalvert":6633,"Ġholds":6634,"Ġdollars":6635,"Ġdiscussed":6636,"Ġphilosoph":6637,"Ġmushroom":6638,"ĠIsabella":6639,"eenth":6640,"gie":6641,"wise":6642,"Ġsector":6643,"itage":6644,"itled":6645,"Ġcinem":6646,"Ġfer":6647,"ĠTs":6648,"ĠTrib":6649,"ĠCam":6650,"ĠBos":6651,"ĠPope":6652,"ĠDanny":6653,"ĠWalk":6654,"osis":6655,"osure":6656,"ĠJersey":6657,"Ġvan":6658,"Ġvary":6659,"Ġvision":6660,"ĠStrand":6661,"Ġcontest":6662,"Ġagent":6663,"Ġoffers":6664,"ĠYank":6665,"angerous":6666,"Ġ74":6667,"Ġ79":6668,"aws":6669,"Ġ91":6670,"Ġpublisher":6671,"Ġsym":6672,"ajevo":6673,"Ġ1948":6674,"Ġdescribing":6675,"Ġgeneration":6676,"Ġappearing":6677,"Ġ1917":6678,"Ġmedieval":6679,"Ġfields":6680,"Ġsolid":6681,"Ġstatement":6682,"Ġ1890":6683,"Ġpitch":6684,"Ġcoastal":6685,"Ġpredecess":6686,"Ġaccounts":6687,"Ġruled":6688,"Ġrules":6689,"Ġtribes":6690,"Ġchapel":6691,"ĠResear":6692,"Ġcolonial":6693,"Ġrhyth":6694,"ĠSarajevo":6695,"ĠWeekly":6696,"ĠLisa":6697,"Ġyounger":6698,"ĠIndustry":6699,"bles":6700,"ef":6701,"gra":6702,"water":6703,"rets":6704,"Ġcaught":6705,"Ġbond":6706,"Ġinner":6707,"Ġhope":6708,"ĠSa":6709,"ĠSor":6710,"iders":6711,"ivals":6712,"ĠHere":6713,"ĠDaily":6714,"ĠWars":6715,"ĠJif":6716,"ateur":6717,"Ġplants":6718,"Ġkings":6719,"Ġunn":6720,"Ġarts":6721,"Ġmanner":6722,"Ġdesire":6723,"intend":6724,"Ġ88":6725,"Ġreleg":6726,"Ġsoil":6727,"Ġsomeone":6728,"Ġ1979":6729,"Ġinstruct":6730,"Ġ1951":6731,"ĠOrgan":6732,"engers":6733,"Ġbasic":6734,"Ġeverything":6735,"Ġdiscovery":6736,"Ġdifficulty":6737,"offman":6738,"Ġrecognition":6739,"Ġzone":6740,"Ġsynthes":6741,"Ġexception":6742,"Ġapart":6743,"Ġforests":6744,"ĠCampb":6745,"Ġrarely":6746,"Ġconsiderable":6747,"ĠVictoria":6748,"Ġemotional":6749,"Ġninth":6750,"ĠDestiny":6751,"Ġarticle":6752,"Ġrestaurant":6753,"Ġeurop":6754,"ĠFrederick":6755,"ĠYankovic":6756,"20":6757,"Ã§":6758,"Ġur":6759,"Ġtaught":6760,"Ġworship":6761,"Ġcold":6762,"ician":6763,"Ġmine":6764,"Ġmunic":6765,"Ġha":6766,"Ġhill":6767,"Ġhall":6768,"ĠAround":6769,"ĠChen":6770,"aments":6771,"Ġnob":6772,"Ġgall":6773,"igades":6774,"using":6775,"ĠRem":6776,"union":6777,"ĠFair":6778,"ĠElect":6779,"ĠInit":6780,"ables":6781,"abeth":6782,"Ġshore":6783,"ultane":6784,"Ġwealth":6785,"ĠLee":6786,"ĠJoe":6787,"Ġ121":6788,"Ġ1961":6789,"Ġlanded":6790,"Ġ1954":6791,"Ġevening":6792,"Ġopponents":6793,"Ġreplacement":6794,"ĠTelevision":6795,"Ġinvolvement":6796,"Ġsettle":6797,"graded":6798,"Ġvolunte":6799,"Ġnomination":6800,"Ġspecifically":6801,"Ġwooden":6802,"ĠTransport":6803,"Ġhotel":6804,"ĠSomali":6805,"ĠClarkson":6806,"Ġthirty":6807,"ĠRolling":6808,"ĠMozamb":6809,"Ġsudden":6810,"AC":6811,"Brien":6812,"eper":6813,"iÅ":6814,"iary":6815,"lan":6816,"yles":6817,"Ġtal":6818,"Ġtie":6819,"reets":6820,"atures":6821,"orous":6822,"Ġfish":6823,"Ġbal":6824,"ingale":6825,"leep":6826,"ĠAR":6827,"ĠSi":6828,"ĠSanta":6829,"ĠSpring":6830,"eless":6831,"Ġstream":6832,"verse":6833,"ceived":6834,"ĠDA":6835,"ĠFame":6836,"Ġconsequ":6837,"ĠLords":6838,"istol":6839,"avia":6840,"Ġleuk":6841,"Ġju":6842,"Ġjazz":6843,"ĠYan":6844,"ropol":6845,"Ġsecured":6846,"ĠAsh":6847,"Ġ99":6848,"Ġaccur":6849,"ĠLev":6850,"inking":6851,"Ġcarbon":6852,"Ġ1937":6853,"ĠMuslim":6854,"Ġbelieves":6855,"ĠOrder":6856,"Ġcommunities":6857,"ĠSimps":6858,"Ġdivine":6859,"ĠRoberts":6860,"Ġpoems":6861,"aska":6862,"ĠDuke":6863,"Ġindustrial":6864,"Ġveget":6865,"ĠSingles":6866,"ĠJerusal":6867,"Ġintersection":6868,"ĠCastle":6869,"Ġpicked":6870,"Ġcontroversy":6871,"ranean":6872,"ĠWilde":6873,"Ġrecommended":6874,"Ġsplit":6875,"ĠColonel":6876,"Ġfungus":6877,"ĠSkye":6878,"ĠBono":6879,"ĠModern":6880,"ĠFrancisco":6881,"ĠJifna":6882,"ĠSimpsons":6883,"ĠJerusalem":6884,"ban":6885,"ext":6886,"rast":6887,"theless":6888,"va":6889,"á»":6890,"Ġic":6891,"Ġsed":6892,"Ġsoul":6893,"Ġwrong":6894,"Ġfit":6895,"Ġfaces":6896,"Ġdim":6897,"Ġdock":6898,"ĠCab":6899,"ĠCory":6900,"ussion":6901,"ĠRif":6902,"ĠDur":6903,"ĠWin":6904,"Ġconvers":6905,"ĠNap":6906,"ĠNick":6907,"ĠJun":6908,"agu":6909,"Ġvide":6910,"allow":6911,"ipe":6912,"Ġwhereas":6913,"ĠShak":6914,"rows":6915,"Ġdepend":6916,"Ġleadership":6917,"Ġsigning":6918,"ĠCarter":6919,"ĠPlot":6920,"Ġ1955":6921,"Ġstrateg":6922,"Ġorganizations":6923,"iveness":6924,"ĠPrime":6925,"Ġlegs":6926,"Ġstandards":6927,"ĠHamilton":6928,"Ġmissed":6929,"Ġdrawing":6930,"Ġlaunch":6931,"ĠÃĹ":6932,"Ġabsor":6933,"ĠOlympics":6934,"Ġconcerns":6935,"ĠMilitary":6936,"Ġscholar":6937,"Ġprincipal":6938,"ĠHuman":6939,"Ġextremely":6940,"Ġspecimens":6941,"ĠAdams":6942,"ĠIndependent":6943,"ĠArgentina":6944,"cape":6945,"iar":6946,"pective":6947,"onica":6948,"rec":6949,"Ġske":6950,"Ġsession":6951,"Ġbes":6952,"Ġble":6953,"ĠAD":6954,"ĠSand":6955,"adow":6956,"iday":6957,"imal":6958,"ĠPan":6959,"ĠPul":6960,"ĠPower":6961,"Ġconference":6962,"Ġ1900":6963,"Ġexisted":6964,"Ġyouth":6965,"Ġparties":6966,"wealth":6967,"Ġteeth":6968,"ĠAnc":6969,"Ġ89":6970,"Ġmuscar":6971,"Ġindig":6972,"Ġminister":6973,"Ġshowing":6974,"iversary":6975,"Ġdistributed":6976,"Ġwarm":6977,"Ġ1958":6978,"ĠForces":6979,"ĠBeach":6980,"Ġtries":6981,"Ġapproached":6982,"Ġdemol":6983,"ĠEarl":6984,"Ġspeech":6985,"Ġconnection":6986,"Ġrelationships":6987,"Ġtreaty":6988,"Ġthreatened":6989,"Ġgrav":6990,"Ġsurrounded":6991,"Ġemerged":6992,"Ġchemical":6993,"ĠWriting":6994,"Ġdiameter":6995,"ĠBanai":6996,"Ġpsych":6997,"Ġeuropium":6998,"CA":6999,"bie":7000,"eor":7001,"nes":7002,"point":7003,"Ġib":7004,"edom":7005,"Ġoption":7006,"Ġwants":7007,"organ":7008,"itals":7009,"Ġcorp":7010,"Ġfal":7011,"Ġfle":7012,"inger":7013,"Ġpage":7014,"Ġmart":7015,"Ġrect":7016,"ĠCE":7017,"amm":7018,"ĠBank":7019,"ĠIV":7020,"ĠIron":7021,"ĠHung":7022,"Ġstem":7023,"utt":7024,"ĠPoint":7025,"ĠDisc":7026,"Ġalien":7027,"cho":7028,"ĠWW":7029,"Ġcong":7030,"uda":7031,"oca":7032,"Ġshark":7033,"ĠChief":7034,"Ġintention":7035,"Ġpartial":7036,"Ġoverw":7037,"Ġdecor":7038,"Ġdepartment":7039,"Ġ1949":7040,"Ġ1977":7041,"Ġbright":7042,"Ġpointed":7043,"aurus":7044,"Ġoppos":7045,"Ġhistorians":7046,"spec":7047,"Ġadmitted":7048,"Ġseeing":7049,"Ġfacing":7050,"Ġcrossed":7051,"Ġregularly":7052,"ĠDepression":7053,"Ġrailway":7054,"Ġimmediate":7055,"Ġfiring":7056,"Ġfavorite":7057,"Ġhoped":7058,"Ġdocumentary":7059,"Ġconstitution":7060,"Ġinstitutions":7061,"Ġalternative":7062,"Ġlbw":7063,"Ġratings":7064,"ĠNorman":7065,"ĠRyan":7066,"ĠRoger":7067,"Ġexpedition":7068,"Ġunusual":7069,"Ġisolated":7070,"Ġexpansion":7071,"Ġcitiz":7072,"ĠLennon":7073,"ba":7074,"iour":7075,"ooth":7076,"sch":7077,"wich":7078,"zen":7079,"à¤":7080,"Ġsulf":7081,"Ġinland":7082,"ĠAld":7083,"Ġlap":7084,"Ġeighth":7085,"Ġgather":7086,"uses":7087,"usad":7088,"aya":7089,"ĠPerson":7090,"ĠDesc":7091,"eman":7092,"emia":7093,"ĠFern":7094,"ĠFras":7095,"ĠGoffman":7096,"Ġchampion":7097,"Ġrecre":7098,"ĠUnlike":7099,"formed":7100,"Ġconsum":7101,"Ġflo":7102,"Ġregional":7103,"Ġassumed":7104,"Ġ07":7105,"ledon":7106,"Ġowner":7107,"Ġdesignation":7108,"ossible":7109,"Ġanniversary":7110,"ĠHergÃ©":7111,"Ġprotests":7112,"Ġbreaking":7113,"Ġreviewer":7114,"Ġmarks":7115,"Ġstrongly":7116,"Ġchanging":7117,"ombat":7118,"Ġwatch":7119,"Ġdestroyers":7120,"ÃŃvar":7121,"Ġtreated":7122,"Ġimprove":7123,"Ġlanguages":7124,"Ġsequel":7125,"Ġliterary":7126,"ĠTerrit":7127,"Ġancest":7128,"ĠRhodes":7129,"Ġexamples":7130,"Ġbringing":7131,"ĠJaneiro":7132,"Ġwatershed":7133,"ĠBolÃŃvar":7134,"Ġinhabit":7135,"Ġmessage":7136,"Ġromantic":7137,"Ġduties":7138,"Ġprotagonist":7139,"ĠKilmer":7140,"Ġfranchise":7141,"ĠSaprang":7142,"nell":7143,"rates":7144,"worth":7145,"inet":7146,"erog":7147,"Ġsections":7148,"Ġwinner":7149,"ĠTest":7150,"ĠTower":7151,"sta":7152,"ĠMand":7153,"ĠBal":7154,"ĠBall":7155,"ĠBase":7156,"ĠBert":7157,"eton":7158,"otic":7159,"Ġstadium":7160,"ĠPA":7161,"ĠPine":7162,"ĠWimb":7163,"rapped":7164,"ĠLanc":7165,"Ġorchest":7166,"ockey":7167,"ĠKit":7168,"ĠStation":7169,"ĠStory":7170,"ĠStock":7171,"ogether":7172,"ĠHearts":7173,"Ġaged":7174,"Ġoutf":7175,"Ġ63":7176,"Ġ93":7177,"Ġmeets":7178,"Ġretreat":7179,"Ġindicated":7180,"Ġ06":7181,"ekÄģn":7182,"Ġ1983":7183,"Ġcrest":7184,"ĠGerard":7185,"Ġairline":7186,"ĠColor":7187,"Ġ1910":7188,"ĠGuy":7189,"Ġdetailed":7190,"Ġapproved":7191,"istered":7192,"encies":7193,"Ġgenre":7194,"Ġcoup":7195,"Ġengineering":7196,"Ġgrey":7197,"ĠSquare":7198,"Ġcompletion":7199,"ĠLawton":7200,"ĠJean":7201,"Ġattracted":7202,"ĠBCE":7203,"ĠGeorgia":7204,"onnaissance":7205,"Ġwearing":7206,"Ġspecimen":7207,"ĠBurns":7208,"Ġrescue":7209,"ĠJournal":7210,"Ġacademic":7211,"Ġeggs":7212,"Ġeasily":7213,"ĠResearch":7214,"ĠWimbledon":7215,"how":7216,"know":7217,"ois":7218,"Ġsam":7219,"Ġsell":7220,"Ġocean":7221,"Ġcul":7222,"Ġbay":7223,"Ġpric":7224,"lets":7225,"ĠSher":7226,"ĠCru":7227,"ĠCook":7228,"ĠCorn":7229,"Ġlob":7230,"ĠBass":7231,"igation":7232,"Ġstreak":7233,"ĠRaj":7234,"ĠWolf":7235,"Ġconqu":7236,"osm":7237,"ĠNeb":7238,"aga":7239,"agas":7240,"ĠOffic":7241,"Ġproport":7242,"ppet":7243,"Ġshif":7244,"Ġspaces":7245,"oked":7246,"Ġcloud":7247,"range":7248,"ĠThird":7249,"Ġpreced":7250,"Ġflat":7251,"Ġaccused":7252,"Ġinterchange":7253,"Ġcoord":7254,"Ġacknow":7255,"Ġdepos":7256,"ĠConc":7257,"Ġimplement":7258,"Ġstarling":7259,"Ġattempting":7260,"Ġmedium":7261,"Ġterminus":7262,"Ġeffectively":7263,"ĠXe":7264,"Ġsurviving":7265,"Ġequal":7266,"Ġreading":7267,"Ġcatch":7268,"Ġlooked":7269,"Ġsettled":7270,"Ġinspiration":7271,"Ġtraveled":7272,"Ġpractices":7273,"Ġterritories":7274,"Ġcivilian":7275,"ĠRichardson":7276,"Ġfeeling":7277,"Ġassistant":7278,"Ġhappy":7279,"ĠCambridge":7280,"Ġrhym":7281,"Ġchallenge":7282,"ĠSomalia":7283,"ĠAttorney":7284,"Ġadjacent":7285,"Ġagricultural":7286,"Ġencouraged":7287,"Ġethn":7288,"ĠAdmiral":7289,"cation":7290,"dess":7291,"hl":7292,"mel":7293,"Ê»":7294,"Ġtick":7295,"heim":7296,"Ġsight":7297,"Ġswe":7298,"itated":7299,"ĠTam":7300,"ĠSb":7301,"Ġet":7302,"Ġnone":7303,"Ġnick":7304,"ĠBed":7305,"ĠHun":7306,"Ġstead":7307,"ĠPass":7308,"emet":7309,"ĠLab":7310,"ĠNow":7311,"Ġanth":7312,"Ġhear":7313,"ifer":7314,"Ġvac":7315,"Ġraces":7316,"Ġritual":7317,"ewhat":7318,"Ġchronic":7319,"Ġorn":7320,"abled":7321,"ĠKombat":7322,"Ġplain":7323,"Ġshots":7324,"Ġcompounds":7325,"Ġrecalled":7326,"Ġpartly":7327,"Ġserial":7328,"Ġevil":7329,"ĠAniston":7330,"aware":7331,"ĠMarg":7332,"Ġaccomm":7333,"Ġ05":7334,"Ġ122":7335,"ennis":7336,"Ġpossession":7337,"Ġvisible":7338,"Ġstands":7339,"attered":7340,"Ġconvoy":7341,"Ġpatron":7342,"Ġ1909":7343,"ĠKeamy":7344,"Ġidentity":7345,"Ġarmor":7346,"Ġ1880":7347,"Ġmulti":7348,"Ġpainted":7349,"Ġbrothers":7350,"going":7351,"Ġtowers":7352,"ĠEvery":7353,"ĠFormula":7354,"Ġchalleng":7355,"ĠGarc":7356,"Ġrecovered":7357,"Ġextreme":7358,"Ġseemed":7359,"Ġscientific":7360,"Ġcandidate":7361,"ĠCommonwealth":7362,"ĠMortal":7363,"Ġarrangement":7364,"ĠJesus":7365,"Ġsomewhat":7366,"Ġobtained":7367,"Ġvideos":7368,"Ġaccommod":7369,"SA":7370,"ds":7371,"ĠÅ":7372,"Ġtone":7373,"Ġtheatre":7374,"Ġcens":7375,"Ġcycle":7376,"isis":7377,"Ġbat":7378,"icate":7379,"icity":7380,"Ġhip":7381,"Ġhits":7382,"ĠTon":7383,"ĠType":7384,"entures":7385,"ĠBron":7386,"Ġgross":7387,"idae":7388,"igins":7389,"ĠHor":7390,"ĠHospital":7391,"utz":7392,"thosaurus":7393,"ĠGun":7394,"ĠJoy":7395,"ĠOwen":7396,"Ġproceed":7397,"Ġexha":7398,"oven":7399,"Ġ58":7400,"Ġschem":7401,"achus":7402,"Ġimpl":7403,"Ġteach":7404,"Ġconsult":7405,"ĠMarines":7406,"Ġrelative":7407,"Ġfled":7408,"Ġverse":7409,"Ġacts":7410,"Ġraid":7411,"annah":7412,"Ġ08":7413,"roscop":7414,"Ġpreserved":7415,"ĠJohnston":7416,"Ġestate":7417,"ĠIslam":7418,"Ġpassage":7419,"ĠGermans":7420,"Ġ1931":7421,"Ġ1935":7422,"Ġ1912":7423,"espe":7424,"Ġtwelve":7425,"Ġfootage":7426,"Ġconvin":7427,"ĠPoland":7428,"Ġreduce":7429,"ĠIslands":7430,"stitution":7431,"Ġhosted":7432,"Ġfunds":7433,"Ġsuffering":7434,"Ġabsol":7435,"iques":7436,"ĠFIA":7437,"ĠArabic":7438,"Ġlinked":7439,"Ġspirit":7440,"Ġcontroversial":7441,"ĠDesign":7442,"Ġsculpture":7443,"Ġcustom":7444,"Ġbasketball":7445,"ĠPlunketts":7446,"ĠElizabeth":7447,"ĠCorythosaurus":7448,"ĠFraser":7449,"ait":7450,"bishop":7451,"Ġtailed":7452,"Ġau":7453,"Ġsessions":7454,"Ġsiege":7455,"Ġwars":7456,"Ġcart":7457,"Ġinaug":7458,"Ġdivers":7459,"lete":7460,"ĠTig":7461,"illy":7462,"Ġthin":7463,"elin":7464,"amic":7465,"ĠBark":7466,"olay":7467,"uts":7468,"ĠDC":7469,"ĠDiv":7470,"ĠDyn":7471,"Ġalleg":7472,"ĠGib":7473,"ĠLate":7474,"ĠNintend":7475,"Ġprohib":7476,"Ġshut":7477,"Ġincome":7478,"Ġcontext":7479,"ĠYour":7480,"ensis":7481,"amps":7482,"Ġ68":7483,"Ġ86":7484,"Ġverte":7485,"Ġdefended":7486,"Ġmusc":7487,"ificial":7488,"ĠRele":7489,"Ġexpensive":7490,"athers":7491,"Ġcontinuing":7492,"Ġprovince":7493,"ĠAllah":7494,"Ġattacking":7495,"Ġ1932":7496,"ĠProf":7497,"Ġreviewers":7498,"Ġdestruction":7499,"Ġdebate":7500,"Ġequipped":7501,"ĠPalmy":7502,"Ġsteel":7503,"Ġcirculation":7504,"Ġresponsibility":7505,"Ġlearning":7506,"Ġblocks":7507,"Ġstayed":7508,"Ġconcerned":7509,"ĠHotel":7510,"Ġunderstand":7511,"Ġmoral":7512,"Ġcomposer":7513,"Ġadults":7514,"ĠSpecial":7515,"ĠProtest":7516,"Ġincorporated":7517,"ĠPeninsula":7518,"ĠMarlborough":7519,"Ġparallel":7520,"ĠShakespe":7521,"Ġopposite":7522,"erogative":7523,"ĠNintendo":7524,"ĠShakespeare":7525,"MO":7526,"body":7527,"nal":7528,"Ġtrick":7529,"Ġow":7530,"Ġpushed":7531,"Ġmap":7532,"ĠTechn":7533,"Ġrepr":7534,"ĠSem":7535,"ĠSweet":7536,"state":7537,"Ġgone":7538,"oli":7539,"iminal":7540,"uscript":7541,"ithic":7542,"ĠPict":7543,"ĠDark":7544,"osl":7545,"Ġansw":7546,"rif":7547,"aku":7548,"Ġkitsune":7549,"ĠUr":7550,"aste":7551,"ĠChannel":7552,"Ġreserve":7553,"Ġagree":7554,"arked":7555,"Ġpool":7556,"Ġsongwrit":7557,"Ġ82":7558,"ĠReal":7559,"Ġmusicians":7560,"Ġpassengers":7561,"ĠSpace":7562,"Ġgovernor":7563,"Ġwilling":7564,"Ġ1911":7565,"Ġclassical":7566,"ĠGeoff":7567,"Ġ1921":7568,"Ġ1929":7569,"Ġdriving":7570,"ĠFlight":7571,"Ġelabor":7572,"Ġlowest":7573,"Ġvictims":7574,"Ġpatrol":7575,"Ġlimit":7576,"ĠPalace":7577,"Ġpromote":7578,"Ġcrossing":7579,"Ġmeetings":7580,"Ġstrip":7581,"ĠMedia":7582,"Ġfalling":7583,"Ġrebels":7584,"Ġmeasures":7585,"Ġrenew":7586,"ĠFei":7587,"ĠLawrence":7588,"ĠPatrick":7589,"Ġvoted":7590,"Ġobservations":7591,"Ġthrowing":7592,"hews":7593,"ĠPitman":7594,"iplom":7595,"ĠStanley":7596,"Ġoccasions":7597,"Ġremnants":7598,"ĠConstruction":7599,"Ġinitiative":7600,"ĠNetherlands":7601,"AT":7602,"fare":7603,"hol":7604,"pent":7605,"rating":7606,"uv":7607,"vention":7608,"yard":7609,"ĠÎ":7610,"onia":7611,"Ġster":7612,"Ġfine":7613,"Ġbrick":7614,"Ġdiet":7615,"Ġhang":7616,"ĠTreat":7617,"ĠAk":7618,"eline":7619,"acle":7620,"otal":7621,"otton":7622,"ĠHob":7623,"ĠRain":7624,"ĠFree":7625,"ĠWic":7626,"ĠLink":7627,"ĠLabor":7628,"ĠOur":7629,"Ġcomments":7630,"Ġprol":7631,"ifies":7632,"Ġray":7633,"Ġrum":7634,"Ġsees":7635,"oceratops":7636,"Ġretained":7637,"Ġacclaim":7638,"Ġraise":7639,"Ġdefences":7640,"Ġ161":7641,"Ġobl":7642,"Ġ1962":7643,"Ġreturns":7644,"Ġ1959":7645,"Ġ1938":7646,"ĠMega":7647,"quez":7648,"alky":7649,"Ġinvolving":7650,"Ġrepresenting":7651,"Ġequivalent":7652,"Ġgoddess":7653,"Ġpraise":7654,"ĠAtlanta":7655,"Ġvillages":7656,"ymph":7657,"Ġpitcher":7658,"Ġdifficulties":7659,"Ġsuperior":7660,"ĠImperial":7661,"Ġbiography":7662,"ĠEmperor":7663,"ĠPlayer":7664,"Ġobjects":7665,"ĠQueens":7666,"Ġintensified":7667,"Ġpurchase":7668,"Ġcarrying":7669,"ĠKorean":7670,"Ġvessels":7671,"Ġfixed":7672,"ĠGuardian":7673,"Ġbatsman":7674,"ĠCambodia":7675,"Ġglobal":7676,"Ġunsuccessful":7677,"ĠStefani":7678,"Ġrhythm":7679,"emetery":7680,"ĠGarcÃŃa":7681,"don":7682,"mes":7683,"rator":7684,"wald":7685,"yer":7686,"zi":7687,"Ġtight":7688,"Ġfold":7689,"Ġblow":7690,"Ġbone":7691,"Ġpure":7692,"icop":7693,"icide":7694,"ĠAP":7695,"ĠCult":7696,"Ġonline":7697,"ĠBang":7698,"Ġgro":7699,"terbury":7700,"ĠHind":7701,"ĠRaff":7702,"ĠFurt":7703,"chang":7704,"Ġhem":7705,"resents":7706,"iform":7707,"Ġexchange":7708,"Ġunion":7709,"ureau":7710,"Ġcloth":7711,"overs":7712,"Ġcommit":7713,"Ġcommitted":7714,"Ġ67":7715,"Ġamino":7716,"Ġ162":7717,"Ġconcerts":7718,"Ġsimultane":7719,"ĠCanterbury":7720,"echism":7721,"Ġperiods":7722,"Ġcovers":7723,"iterranean":7724,"Ġdefeating":7725,"Ġinfluences":7726,"Ġdivisions":7727,"Ġneeds":7728,"Ġcollaps":7729,"ĠMediterranean":7730,"Ġnarrative":7731,"Ġreveals":7732,"Ġescort":7733,"ĠPrior":7734,"ĠEnterprise":7735,"Ġaccompany":7736,"Ġinternal":7737,"Ġdisappoint":7738,"Ġcamera":7739,"Ġbehaviour":7740,"ĠPalestine":7741,"Ġvoiced":7742,"ĠAthletic":7743,"Ġpreferred":7744,"ĠAerith":7745,"ĠPhillies":7746,"ĠGrammy":7747,"Ġsurvivors":7748,"Ġresources":7749,"species":7750,"after":7751,"burn":7752,"boy":7753,"math":7754,"rich":7755,"vements":7756,"Ġbor":7757,"Ġdens":7758,"ĠSports":7759,"elle":7760,"ĠMir":7761,"ĠMother":7762,"ĠMÃ¡":7763,"urrent":7764,"ĠHou":7765,"ĠRugby":7766,"ĠFound":7767,"ĠFront":7768,"Ġrugby":7769,"Ġexit":7770,"ĠKen":7771,"ĠKann":7772,"ĠKrak":7773,"iped":7774,"ishment":7775,"ĠAlong":7776,"rene":7777,"Ġfeed":7778,"Ġdeck":7779,"Ġformally":7780,"Ġfollowers":7781,"Ġ09":7782,"Ġrepresents":7783,"Ġoperating":7784,"Ġconsiders":7785,"ĠUSD":7786,"ĠProg":7787,"Ġclassic":7788,"Ġrefers":7789,"ĠMcG":7790,"Ġcovering":7791,"Ġelse":7792,"Ġcriticised":7793,"Ġdoesn":7794,"Ġcloser":7795,"ĠChampionships":7796,"ĠMarkgra":7797,"Ġtribut":7798,"Ġabsence":7799,"Ġcruiser":7800,"Ġfeelings":7801,"Ġvisitors":7802,"Ġproducts":7803,"Ġnormally":7804,"Ġhundreds":7805,"ĠCathedral":7806,"Ġlegislation":7807,"Ġdeployed":7808,"Ġinterpret":7809,"Ġpanel":7810,"Ġarrested":7811,"Ġdialogue":7812,"Ġproposal":7813,"inje":7814,"Ġastronom":7815,"Ġpupils":7816,"Ġmunicipal":7817,"ĠFernand":7818,"ĠColorado":7819,"ĠRaffles":7820,"ĠFurtado":7821,"ĠMarkgraf":7822,"CC":7823,"OK":7824,"ean":7825,"iy":7826,"Ġille":7827,"Ġtank":7828,"hered":7829,"Ġaw":7830,"Ġfram":7831,"ashed":7832,"ĠSatur":7833,"Ġliber":7834,"ĠBell":7835,"ĠBath":7836,"otype":7837,"ĠHud":7838,"ĠHok":7839,"Ġstable":7840,"ĠRoc":7841,"rage":7842,"ĠLy":7843,"ĠNar":7844,"ĠNad":7845,"ĠNichol":7846,"Ġdeem":7847,"Ġchoir":7848,"Ġorb":7849,"ĠUsta":7850,"ishn":7851,"ĠValky":7852,"Ġreconnaissance":7853,"Ġappropri":7854,"Ġmanuscript":7855,"Ġoutl":7856,"Ġtele":7857,"ĠComb":7858,"Ġprerogative":7859,"Ġforming":7860,"ĠSholay":7861,"Ġenth":7862,"Ġsurpr":7863,"Ġ166":7864,"Ġextent":7865,"Ġinfrast":7866,"ullen":7867,"Ġannually":7868,"Ġ140":7869,"Ġtrading":7870,"Ġconvection":7871,"Ġskull":7872,"Ġbiographer":7873,"Ġdevot":7874,"Ġresearchers":7875,"Ġpoorly":7876,"Ġstationed":7877,"Ġcheck":7878,"Ġsatisf":7879,"Ġensure":7880,"Ġmoments":7881,"Ġdrums":7882,"Ġdisplays":7883,"onomy":7884,"ĠDominican":7885,"ĠNHL":7886,"Ġsubmarine":7887,"Ġreconstruction":7888,"cribed":7889,"ĠDAG":7890,"Ġmuscaria":7891,"Ġoverwhel":7892,"ĠUstaÅ¡":7893,"DH":7894,"friend":7895,"life":7896,"rants":7897,"vati":7898,"zac":7899,"inian":7900,"Ġsunk":7901,"Ġsaves":7902,"Ġwings":7903,"ori":7904,"Ġcreek":7905,"Ġbrand":7906,"Ġdream":7907,"Ġdinosaur":7908,"entional":7909,"ĠCape":7910,"Ġlose":7911,"Ġloy":7912,"Ġlists":7913,"Ġnav":7914,"ĠBat":7915,"owiec":7916,"Ġstreets":7917,"ĠRom":7918,"ĠWiÅ":7919,"ĠJenn":7920,"ateau":7921,"Ġorbit":7922,"anti":7923,"ogy":7924,"Ġintense":7925,"Ġclock":7926,"Ġabund":7927,"ĠAlb":7928,"ricted":7929,"Ġjun":7930,"ĠShow":7931,"Ġentitled":7932,"Ġtransition":7933,"Ġobst":7934,"Ġextension":7935,"ĠWho":7936,"Ġbelt":7937,"ĠBlood":7938,"Ġuseful":7939,"Ġphr":7940,"Ġmodified":7941,"Ġdriven":7942,"ĠRecord":7943,"Ġposted":7944,"Ġinfluential":7945,"Ġdivor":7946,"ĠRichmond":7947,"ĠMaggie":7948,"Ġsteam":7949,"ĠMexican":7950,"Ġinjuries":7951,"Ġframe":7952,"Ġmemory":7953,"Ġwithdrew":7954,"ĠFIFA":7955,"Ġunderstanding":7956,"Ġdramatic":7957,"Ġbombard":7958,"Ġemerg":7959,"Ġpurposes":7960,"Ġessential":7961,"Ġdynasty":7962,"Ġdoubt":7963,"Ġutil":7964,"niowiec":7965,"ĠWiÅĽ":7966,"eared":7967,"hist":7968,"ker":7969,"lie":7970,"lock":7971,"ng":7972,"oom":7973,"ugh":7974,"Ġtests":7975,"Ġsaved":7976,"Ġchess":7977,"arth":7978,"Ġbed":7979,"rous":7980,"Ġdiplom":7981,"ĠSn":7982,"ilst":7983,"ĠCBS":7984,"ĠMun":7985,"ĠMach":7986,"ĠBow":7987,"ĠBab":7988,"ĠBenn":7989,"Ġgard":7990,"Ġash":7991,"ĠRest":7992,"andy":7993,"ĠEle":7994,"Ġrated":7995,"Ġrates":7996,"Ġridge":7997,"Ġplane":7998,"Ġshipping":7999,"acks":8000,"Ġspoke":8001,"ĠVII":8002,"Ġago":8003,"Ġotherwise":8004,"teenth":8005,"Ġ78":8006,"Ġ900":8007,"ugosl":8008,"ĠArk":8009,"Ġwritings":8010,"Ġactual":8011,"Ġformal":8012,"Ġsubspecies":8013,"inson":8014,"Ġammun":8015,"Ġ101":8016,"Ġtrail":8017,"Ġseverely":8018,"Ġexposure":8019,"Ġ155":8020,"Ġoriginated":8021,"Ġinstalled":8022,"Ġgenerated":8023,"Ġhelicop":8024,"Ġrestrict":8025,"ĠParvati":8026,"Ġlisten":8027,"Ġparish":8028,"Ġ1928":8029,"Ġengines":8030,"Ġdemand":8031,"Ġsuggesting":8032,"Ġexcess":8033,"Ġfactors":8034,"ĠFederal":8035,"Ġwatching":8036,"Ġinterests":8037,"restling":8038,"ĠTownship":8039,"Ġcrosses":8040,"Ġburned":8041,"Ġinformed":8042,"ĠMoore":8043,"Ġkingdom":8044,"Ġmaterials":8045,"Ġpersu":8046,"itzer":8047,"Ġhappened":8048,"ĠPortugal":8049,"ĠIsraeli":8050,"Ġloan":8051,"ĠNorway":8052,"criptions":8053,"Ġapparently":8054,"ĠMassachus":8055,"Ġjournalist":8056,"Ġpicture":8057,"Ġchairman":8058,"ĠJacob":8059,"Ġjackrab":8060,"ĠRÃ©union":8061,"Ġcircumstances":8062,"ĠEducation":8063,"ekÄģntav":8064,"ĠBarker":8065,"ĠWiÅĽniowiec":8066,"Ġammunition":8067,"ĠMassachusetts":8068,"DS":8069,"western":8070,"heera":8071,"Ġori":8072,"Ġwine":8073,"Ġciting":8074,"Ġfestival":8075,"ĠSid":8076,"ĠSab":8077,"ilation":8078,"ĠCec":8079,"acter":8080,"urse":8081,"ĠBaker":8082,"ĠBranch":8083,"ĠHamp":8084,"ĠHaving":8085,"ĠProm":8086,"ĠRoth":8087,"ĠDh":8088,"ĠDig":8089,"ĠGary":8090,"ĠGwen":8091,"ĠLith":8092,"ĠLang":8093,"ĠNiel":8094,"ĠEaton":8095,"ĠEagle":8096,"oren":8097,"ĠIntern":8098,"ĠKim":8099,"ĠâĤ":8100,"iang":8101,"Ġunlike":8102,"oko":8103,"Ġclimate":8104,"Ġresign":8105,"ryce":8106,"Ġdisaster":8107,"Ġpartially":8108,"ĠYugosl":8109,"Ġconsc":8110,"Ġ84":8111,"Ġrelie":8112,"inder":8113,"ĠSee":8114,"Ġmovements":8115,"Ġimpossible":8116,"Ġoperate":8117,"Ġcarved":8118,"Ġgenerals":8119,"Ġeleven":8120,"ĠDeath":8121,"ĠGuide":8122,"Ġlatex":8123,"Ġstarlings":8124,"Ġparas":8125,"urricanes":8126,"Ġ1927":8127,"Ġcauses":8128,"Ġvictories":8129,"Ġsurvive":8130,"Ġsky":8131,"Ġready":8132,"Ġmixture":8133,"Ġpredomin":8134,"Ġburning":8135,"ĠMinor":8136,"ĠMinistry":8137,"ĠKhand":8138,"ĠWilson":8139,"Ġmerch":8140,"forced":8141,"Ġtransportation":8142,"Ġmemorial":8143,"rorist":8144,"Ġlayer":8145,"Ġcancer":8146,"Ġshells":8147,"Ġinstitution":8148,"Ġinstruments":8149,"Ġthousand":8150,"ĠSilver":8151,"Ġbehavior":8152,"ĠHistoric":8153,"Ġdeparture":8154,"ĠRAAF":8155,"ĠSwedish":8156,"Ġsubstantial":8157,"Ġoverseas":8158,"Ġresistance":8159,"ĠKannada":8160,"ĠUstaÅ¡e":8161,"ekÄģntavÄģda":8162,"EC":8163,"Hg":8164,"cru":8165,"de":8166,"gov":8167,"pan":8168,"put":8169,"pson":8170,"piece":8171,"rquez":8172,"Ġtack":8173,"Ġturb":8174,"inery":8175,"err":8176,"Ġmamm":8177,"Ġdangerous":8178,"ĠAz":8179,"ĠSans":8180,"ĠSup":8181,"ĠSoon":8182,"ĠCelt":8183,"Ġeat":8184,"Ġwasn":8185,"ĠMidge":8186,"ĠMasters":8187,"urst":8188,"ĠBudd":8189,"ĠBureau":8190,"Ġbearing":8191,"ĠRa":8192,"ĠLast":8193,"Ġheat":8194,"Ġspend":8195,"Ġspores":8196,"Ġresigned":8197,"Ġrecur":8198,"Ġrooms":8199,"Ġafterwards":8200,"weight":8201,"Ġcommem":8202,"Ġtex":8203,"obile":8204,"ĠSeason":8205,"Ġsubst":8206,"Ġamateur":8207,"Ġsupporters":8208,"Ġ113":8209,"Ġ178":8210,"Ġinstance":8211,"Ġmusician":8212,"Ġmodels":8213,"Ġadvis":8214,"Ġ1933":8215,"onto":8216,"Ġrestored":8217,"Ġmarry":8218,"Ġlisting":8219,"Ġwindows":8220,"ĠPerfect":8221,"Ġtemples":8222,"Ġelectronic":8223,"encing":8224,"Ġcompete":8225,"ĠSimpson":8226,"ĠPolice":8227,"ĠGlad":8228,"Ġinteresting":8229,"Ġlooks":8230,"Ġtechniques":8231,"Ġsquadron":8232,"Ġsequences":8233,"Ġ1860":8234,"Ġcopy":8235,"Ġengineers":8236,"Ġthinking":8237,"Ġtribute":8238,"Ġestablishing":8239,"Ġdocuments":8240,"Ġautom":8241,"ĠHowe":8242,"ĠVeronica":8243,"ASA":8244,"Ġsafe":8245,"Ġinteraction":8246,"Ġspiritual":8247,"Ġopportunities":8248,"Ġstruggle":8249,"Ġpremiered":8250,"Ġbeautiful":8251,"ĠStewart":8252,"ĠGilbert":8253,"ĠYanke":8254,"Ġcongreg":8255,"Ġnickn":8256,"ĠMÃ¡rquez":8257,"ĠKhandoba":8258,"mate":8259,"ti":8260,"uable":8261,"za":8262,"Ġels":8263,"Ġty":8264,"inate":8265,"Ġsale":8266,"isler":8267,"Ġbord":8268,"ĠinHg":8269,"Ġpale":8270,"Ġtoll":8271,"roit":8272,"Ġmode":8273,"ĠCob":8274,"oma":8275,"omura":8276,"ĠThen":8277,"ĠBa":8278,"ĠBah":8279,"ĠIra":8280,"Ġforcing":8281,"ĠPur":8282,"ĠDak":8283,"ĠFall":8284,"ĠFRE":8285,"ulating":8286,"ĠWag":8287,"ĠWright":8288,"ĠJr":8289,"opl":8290,"Ġprove":8291,"Ġvast":8292,"udes":8293,"Ġnotably":8294,"apse":8295,"ĠVul":8296,"Ġrecru":8297,"Ġdesert":8298,"Ġattrib":8299,"Ġremember":8300,"Ġconsol":8301,"Ġconservation":8302,"ologies":8303,"Ġregiment":8304,"Ġcoins":8305,"Ġ123":8306,"Ġ165":8307,"Ġminimum":8308,"Ġreprodu":8309,"Ġpoll":8310,"Ġartwork":8311,"Ġartificial":8312,"Ġdesigns":8313,"Ġoffices":8314,"Ġ1957":8315,"Ġadventure":8316,"Ġhelmet":8317,"ĠMcL":8318,"Ġstorms":8319,"Ġcriminal":8320,"Ġmyst":8321,"Ġsituated":8322,"Ġreaders":8323,"Ġrecognised":8324,"Ġachieve":8325,"ĠToronto":8326,"Ġproperties":8327,"Ġexperiences":8328,"ĠJustice":8329,"ĠMiller":8330,"Ġweapon":8331,"Ġneighbor":8332,"Ġvessel":8333,"ĠJurchen":8334,"ĠGirls":8335,"ĠDetroit":8336,"ĠPhoenix":8337,"LIMO":8338,"ĠMulder":8339,"Ġretirement":8340,"ĠMozambique":8341,"Ġacknowled":8342,"ĠSaturday":8343,"Ġelsewhere":8344,"ĠFRELIMO":8345,"book":8346,"mit":8347,"wick":8348,"zo":8349,"Ġrib":8350,"Ġtiss":8351,"Ġtanks":8352,"rees":8353,"Ġsad":8354,"Ġsons":8355,"Ġsung":8356,"Ġfant":8357,"Ġfountain":8358,"Ġbod":8359,"Ġbell":8360,"asm":8361,"Ġhorn":8362,"ĠAra":8363,"ĠSuch":8364,"ĠCP":8365,"ĠCas":8366,"lyn":8367,"ĠImp":8368,"Ġgiant":8369,"ĠPC":8370,"ĠPot":8371,"ĠRen":8372,"uls":8373,"Ġalle":8374,"ĠGray":8375,"ĠNetwork":8376,"ĠEsh":8377,"Ġselection":8378,"arte":8379,"ĠKy":8380,"ĠKansas":8381,"ĠVice":8382,"Ġagents":8383,"Ġenh":8384,"phy":8385,"ĠUnivers":8386,"oyage":8387,"Ġformat":8388,"Ġcooper":8389,"Ġfounder":8390,"Ġsurg":8391,"Ġtrained":8392,"ĠScully":8393,"Ġdepending":8394,"atherine":8395,"yline":8396,"ĠWarren":8397,"Ġcounties":8398,"Ġcharacterized":8399,"ĠCanal":8400,"Ġstarred":8401,"Ġengage":8402,"Ġantic":8403,"ĠManagement":8404,"Ġformerly":8405,"ĠBarry":8406,"Ġwestward":8407,"Ġstatistics":8408,"Ġprogramme":8409,"Ġgrounds":8410,"Ġradiation":8411,"ĠKevin":8412,"Ġ1850":8413,"Ġfallen":8414,"Ġmeasured":8415,"Ġcosts":8416,"Ġburial":8417,"Ġobjective":8418,"Ġfrig":8419,"Ġnetworks":8420,"Ġdepicts":8421,"ĠRussia":8422,"Ġcleared":8423,"Ġbiggest":8424,"Ġphotograph":8425,"Ġholiday":8426,"Ġvehicle":8427,"Ġexcavation":8428,"Ġremarked":8429,"chell":8430,"ĠJourney":8431,"ĠAlbums":8432,"ĠMemorial":8433,"ĠColeman":8434,"ĠBulls":8435,"Ġdelayed":8436,"Ġcrops":8437,"Ġcitizens":8438,"Ġconvinced":8439,"ĠHudson":8440,"Ġinfrastructure":8441,"ĠWiÅĽniowiecki":8442,"Ch":8443,"iac":8444,"night":8445,"yo":8446,"Ã±":8447,"Ġå":8448,"Ġid":8449,"Ġfert":8450,"esh":8451,"alley":8452,"icit":8453,"icul":8454,"Ġmoon":8455,"Ġdwar":8456,"ĠTu":8457,"Ġrender":8458,"ellect":8459,"acec":8460,"ĠMuch":8461,"ĠBad":8462,"olen":8463,"Ġstyles":8464,"ĠPow":8465,"ĠDave":8466,"emies":8467,"ĠGate":8468,"osh":8469,"ĠNob":8470,"aints":8471,"Ġvul":8472,"Ġdeleg":8473,"Ġrivers":8474,"ĠKong":8475,"acked":8476,"ĠStal":8477,"ĠStories":8478,"ellar":8479,"Ġcompound":8480,"ruz":8481,"rupted":8482,"assador":8483,"Ġresidence":8484,"Ġplayoff":8485,"ĠAnzac":8486,"Ġfeathers":8487,"Ġdecides":8488,"ĠArsenal":8489,"Ġflash":8490,"Ġ02":8491,"Ġ03":8492,"Ġ163":8493,"Ġdescribe":8494,"Ġinscription":8495,"ĠPlat":8496,"Ġrestoration":8497,"ĠBeh":8498,"Ġdifferences":8499,"Ġ1926":8500,"Ġopponent":8501,"shore":8502,"Ġclaiming":8503,"Ġskills":8504,"ĠDavis":8505,"Ġfuner":8506,"ĠMagdal":8507,"Ġsteep":8508,"Ġpredators":8509,"amental":8510,"Ġcondem":8511,"Ġaudiences":8512,"Ġclosest":8513,"Ġclearly":8514,"ĠOscar":8515,"Ġhousing":8516,"Ġrailroad":8517,"Ġfrust":8518,"ĠRepublican":8519,"Ġdetermine":8520,"avalry":8521,"Ġvote":8522,"ĠPeters":8523,"ĠMrs":8524,"ĠTrek":8525,"Ġdisplayed":8526,"ĠConfeder":8527,"iggs":8528,"Ġhunting":8529,"Ġranging":8530,"Ġtunnel":8531,"ĠOriginally":8532,"ĠNevertheless":8533,"Ġbenefit":8534,"ĠPersian":8535,"Ġreservoir":8536,"Ġreinforcements":8537,"Ġcrake":8538,"Ġimprison":8539,"Ġpredecessor":8540,"ĠOrganization":8541,"ĠInitially":8542,"ĠTerritory":8543,"ĠProfess":8544,"ĠProtestant":8545,"ĠHokies":8546,"Ġdwarf":8547,"Malley":8548,"gam":8549,"mouth":8550,"ta":8551,"rep":8552,"atically":8553,"Ġcyt":8554,"Ġbones":8555,"icia":8556,"Ġmyc":8557,"oux":8558,"ĠTal":8559,"ĠCategory":8560,"eld":8561,"Ġlake":8562,"Ġeasy":8563,"acles":8564,"ĠISB":8565,"Ġgrown":8566,"ĠHay":8567,"ĠHope":8568,"ĠPle":8569,"ĠWing":8570,"ĠGro":8571,"Ġcomed":8572,"ĠChagas":8573,"iao":8574,"Ġintellect":8575,"uez":8576,"ignment":8577,"Ġattained":8578,"Ġteen":8579,"ĠUntil":8580,"Ġpoison":8581,"Ġrelation":8582,"Ġunderw":8583,"Ġprime":8584,"Ġdefending":8585,"Ġ01":8586,"Ġthereafter":8587,"Ġsmooth":8588,"Ġinstall":8589,"Ġcargo":8590,"Ġanyone":8591,"uthor":8592,"ĠAllen":8593,"Ġpromised":8594,"Ġprompted":8595,"Ġrestricted":8596,"ĠParaly":8597,"Ġchildhood":8598,"Ġslide":8599,"Ġbreed":8600,"Ġcommandment":8601,"ĠAbby":8602,"Ġtemporary":8603,"Ġelections":8604,"Ġarrive":8605,"Ġrepresentative":8606,"ĠEvent":8607,"sequently":8608,"Ġerr":8609,"Ġ1905":8610,"Ġannounce":8611,"ĠMagad":8612,"Ġpriest":8613,"Ġranking":8614,"Ġargues":8615,"ĠRocky":8616,"Ġruling":8617,"Ġperspective":8618,"ĠTurks":8619,"Ġadaptation":8620,"Ġaspect":8621,"Ġdegrees":8622,"Ġbadly":8623,"ĠVictorian":8624,"Ġmagnitude":8625,"Ġcorner":8626,"ĠCorb":8627,"Ġthrone":8628,"Ġscientists":8629,"ĠMathews":8630,"ĠCommunist":8631,"Ġranges":8632,"Ġpreparation":8633,"ĠJonathan":8634,"ĠChapel":8635,"ĠLegacy":8636,"Ã¶n":8637,"ĠLeslie":8638,"Ġexclusively":8639,"Ġmoderate":8640,"ĠExpress":8641,"ĠKelly":8642,"Ġfalse":8643,"ĠValkyria":8644,"ĠWagner":8645,"Ġalleged":8646,"ĠISBN":8647,"ĠParalymp":8648,"EFA":8649,"aft":8650,"hire":8651,"raska":8652,"ski":8653,"zhou":8654,"Ã£":8655,"Ġaster":8656,"Ġtheater":8657,"eries":8658,"Ġsnow":8659,"Ġsisters":8660,"Ġwet":8661,"orious":8662,"itively":8663,"Ġcake":8664,"Ġcup":8665,"Ġcaves":8666,"Ġfate":8667,"Ġbra":8668,"Ġbind":8669,"Ġpine":8670,"Ġmac":8671,"Ġhuge":8672,"leton":8673,"Ġrevers":8674,"ĠAce":8675,"ilty":8676,"Ġlat":8677,"amount":8678,"Ġnurse":8679,"ĠMit":8680,"Ġgates":8681,"olithic":8682,"ĠHans":8683,"ĠPf":8684,"Ġbear":8685,"rawn":8686,"ĠLud":8687,"ĠLamb":8688,"ĠNash":8689,"Ġdeity":8690,"Ġsup":8691,"Ġexists":8692,"ĠKurt":8693,"ĠâĢľ":8694,"ĠUEFA":8695,"Ġspur":8696,"Ġresumed":8697,"Ġmanga":8698,"active":8699,"Ġaftern":8700,"Ġoffs":8701,"Ġoutbreak":8702,"Ġfee":8703,"Ġearn":8704,"Ġconsp":8705,"Ġtrust":8706,"Ġcharged":8707,"Ġsymp":8708,"arsh":8709,"ĠShel":8710,"Ġdiscip":8711,"Ġowners":8712,"Ġnorthward":8713,"ĠHerze":8714,"Ġportrait":8715,"Ġexplo":8716,"Ġexplains":8717,"Ġhandled":8718,"Ġdeliber":8719,"Ġeveryone":8720,"ĠAmb":8721,"Ġbands":8722,"Ġerected":8723,"ĠGlob":8724,"ĠImag":8725,"ĠEmmy":8726,"Ġengineer":8727,"Ġinjured":8728,"ĠPoly":8729,"Ġamounts":8730,"Ġcolonies":8731,"Ġinnov":8732,"ASP":8733,"Ġboundary":8734,"ĠOutstanding":8735,"ĠWaterfall":8736,"Ġcelebrated":8737,"ĠCatechism":8738,"Ġarchitecture":8739,"ĠCheval":8740,"Ġadvertising":8741,"Ġstrengthened":8742,"Ġfatal":8743,"Ġbulk":8744,"borne":8745,"ĠBrooks":8746,"Ġrifle":8747,"ĠDemocratic":8748,"burgh":8749,"Ġinhabitants":8750,"ĠBertin":8751,"ĠNebraska":8752,"ĠTreaty":8753,"Ġdeemed":8754,"govina":8755,"ĠCeltic":8756,"ĠIraq":8757,"ĠMagadheera":8758,"NL":8759,"SP":8760,"oes":8761,"xual":8762,"Ġtherap":8763,"erg":8764,"orable":8765,"Ġcars":8766,"Ġcateg":8767,"Ġbishop":8768,"Ġbanned":8769,"Ġpy":8770,"Ġrend":8771,"omtav":8772,"adier":8773,"urer":8774,"olia":8775,"ivated":8776,"otten":8777,"ĠPryce":8778,"ĠDum":8779,"ĠDog":8780,"unes":8781,"Ġalt":8782,"char":8783,"ĠLet":8784,"ĠLower":8785,"Ġanaly":8786,"umin":8787,"agen":8788,"ategy":8789,"aki":8790,"aks":8791,"Ġchrom":8792,"Ġchamber":8793,"ĠKam":8794,"okovic":8795,"enden":8796,"ĠHeaven":8797,"ĠThus":8798,"Ġscattered":8799,"Ġpartner":8800,"ĠYo":8801,"inton":8802,"ĠAsomtav":8803,"Ġ92":8804,"ugu":8805,"Ġrecordings":8806,"Ġsubstitute":8807,"ĠReb":8808,"Ġenters":8809,"Ġexposed":8810,"Ġmonuments":8811,"Ġ117":8812,"ĠSheff":8813,"azines":8814,"Ġreven":8815,"Ġinscriptions":8816,"Ġlandings":8817,"Ġwarning":8818,"Ġdesigner":8819,"ashi":8820,"Ġprompt":8821,"Ġstrategy":8822,"Ġdifference":8823,"Ġtriple":8824,"plete":8825,"Ġ1924":8826,"Ġ1925":8827,"Ġdriver":8828,"Ġdemands":8829,"Ġpropag":8830,"Ġprofile":8831,"Ġsounds":8832,"ĠHarold":8833,"Ġsupern":8834,"ĠMadrid":8835,"ĠBusiness":8836,"Ġuncertain":8837,"ĠPriest":8838,"Ġprevented":8839,"Ġapplication":8840,"Ġdominant":8841,"Ġproductions":8842,"Ġprincip":8843,"ĠDjokovic":8844,"Ġgraphics":8845,"Ġjudge":8846,"Ġpursue":8847,"Ġdemonstrated":8848,"Ġdistinctive":8849,"Ġexcavations":8850,"Ġneutral":8851,"ĠUlt":8852,"Ġcollaboration":8853,"Ġturrets":8854,"Ġgarrison":8855,"Ġtactics":8856,"ĠMurray":8857,"Ġexecuted":8858,"ĠRailway":8859,"ĠAlfred":8860,"Ġdistinguished":8861,"Ġsettlements":8862,"ĠRifles":8863,"eorological":8864,"Ġethnic":8865,"ĠHouston":8866,"ĠNielsen":8867,"Ġtexts":8868,"ĠYankees":8869,"ĠHerzegovina":8870,"ĠAsomtavruli":8871,"NC":8872,"PA":8873,"bre":8874,"box":8875,"father":8876,"gars":8877,"ji":8878,"tah":8879,"uz":8880,"Ġtenth":8881,"Ġax":8882,"Ġceratops":8883,"isp":8884,"arant":8885,"Ġpap":8886,"Ġpounds":8887,"Ġmbar":8888,"ĠSS":8889,"eland":8890,"Ġnurs":8891,"ĠMant":8892,"ĠBible":8893,"ĠBrand":8894,"ĠBarn":8895,"Ġforty":8896,"ige":8897,"tered":8898,"usic":8899,"Ġstood":8900,"ĠRap":8901,"ĠWeb":8902,"ĠWomen":8903,"ĠNL":8904,"ĠNav":8905,"ĠJen":8906,"Ġhen":8907,"rior":8908,"ĠExt":8909,"Ġsure":8910,"essee":8911,"Ġkit":8912,"ellite":8913,"oster":8914,"usts":8915,"Ġusage":8916,"ĠThose":8917,"ints":8918,"Ġcenters":8919,"Ġfeels":8920,"Ġcharity":8921,"Ġreleases":8922,"Ġassisted":8923,"Ġcoin":8924,"ieties":8925,"Ġexpect":8926,"Ġ170":8927,"Ġdowntown":8928,"Ġcarri":8929,"ĠCarre":8930,"ervative":8931,"Ġedges":8932,"Ġconsidering":8933,"ĠDean":8934,"Ġ1934":8935,"apping":8936,"Ġapproval":8937,"Ġdrain":8938,"ĠAbd":8939,"Ġinitiated":8940,"Ġamongst":8941,"Ġelder":8942,"Ġmagazines":8943,"ĠSupp":8944,"ĠAnglo":8945,"Ġliked":8946,"ĠBerlin":8947,"ĠMadison":8948,"ĠJews":8949,"ĠPhilip":8950,"ĠCorporation":8951,"Ġquarterback":8952,"ĠCongo":8953,"Ġsubjects":8954,"Ġarchaeologist":8955,"ĠOverall":8956,"Ġindicating":8957,"Ġadopt":8958,"Ġtournaments":8959,"Ġboxing":8960,"ĠTennessee":8961,"Ġabandon":8962,"Ġtranslation":8963,"Ġsuspended":8964,"ĠConservation":8965,"ĠHawaii":8966,"Ġdefenders":8967,"Ġsucceed":8968,"Ġsacred":8969,"ĠGallery":8970,"ĠIndependence":8971,"Ġduty":8972,"Ġinterpre":8973,"ĠKirk":8974,"ĠOriginal":8975,"Ġaltered":8976,"ĠGhost":8977,"Ġpremiere":8978,"Ġstriking":8979,"Ġresidential":8980,"Ġphilosophy":8981,"Ġmartial":8982,"Ġscheme":8983,"Ġemergency":8984,"Ġcommemor":8985,"ĠEshmun":8986,"Ġasteroid":8987,"Ġafternoon":8988,"IA":8989,"egr":8990,"gers":8991,"ping":8992,"rh":8993,"zym":8994,"Ġï":8995,"Ġtale":8996,"inations":8997,"Ġcous":8998,"Ġfill":8999,"Ġfoss":9000,"alog":9001,"Ġpull":9002,"Ġtoured":9003,"ĠTok":9004,"ĠTax":9005,"ĠAT":9006,"ĠAman":9007,"ĠSign":9008,"ĠSAS":9009,"ĠCO":9010,"ĠCond":9011,"eled":9012,"ami":9013,"Ġnet":9014,"Ġnations":9015,"urd":9016,"Ġgh":9017,"oto":9018,"ĠHills":9019,"owa":9020,"ĠDiam":9021,"ĠDah":9022,"ĠFem":9023,"rapping":9024,"ĠNS":9025,"ĠNon":9026,"ĠNaval":9027,"ĠNDH":9028,"ctor":9029,"odore":9030,"rik":9031,"ĠOt":9032,"ĠOmar":9033,"sex":9034,"ĠStav":9035,"Ġspr":9036,"iney":9037,"Ġuniform":9038,"Ġroots":9039,"action":9040,"ĠOntar":9041,"ĠAnne":9042,"away":9043,"ĠMariana":9044,"Ġcoinc":9045,"anyon":9046,"ieth":9047,"Ġreceives":9048,"Ġ114":9049,"Ġconclusion":9050,"aza":9051,"Ġimpression":9052,"Ġimpressed":9053,"isms":9054,"Ġguilty":9055,"Ġvariation":9056,"ĠBeg":9057,"apped":9058,"raction":9059,"Ġpersonality":9060,"Ġ1000":9061,"ĠXenon":9062,"Ġrealized":9063,"itarian":9064,"Ġcommunication":9065,"Ġcrisis":9066,"ĠRomanian":9067,"Ġordering":9068,"Ġnortheastern":9069,"neath":9070,"ĠEvans":9071,"Ġ1908":9072,"ĠNext":9073,"umps":9074,"ĠMagn":9075,"regon":9076,"ĠMountains":9077,"Ġbattlecru":9078,"Ġvalid":9079,"ĠSwiss":9080,"Ġreducing":9081,"Ġcolleagues":9082,"Ġfifty":9083,"Ġrespective":9084,"ĠPeach":9085,"Ġreveal":9086,"Ġcrews":9087,"Ġviolent":9088,"Ġ1870":9089,"ĠAgain":9090,"ĠGrade":9091,"Ġtesting":9092,"Ġoccupation":9093,"Ġdiagn":9094,"Ġfrequent":9095,"ĠFinals":9096,"Ġschedule":9097,"Ġtalking":9098,"Ġrequested":9099,"Ġenvironmental":9100,"Ġdefinition":9101,"ĠMichel":9102,"ĠVillage":9103,"ĠGiants":9104,"Ġdelivery":9105,"ĠCaes":9106,"ĠCubs":9107,"Ġeliminated":9108,"Ġrebuilt":9109,"ĠSorra":9110,"ĠLabour":9111,"ĠRelease":9112,"ĠWicca":9113,"Ġsimultaneously":9114,"ĠProgram":9115,"ĠImagine":9116,"ĠChevaliers":9117,"ĠSheffield":9118,"ĠOntario":9119,"Pa":9120,"bing":9121,"eign":9122,"gets":9123,"jamin":9124,"nership":9125,"vious":9126,"wan":9127,"Ġsang":9128,"Ġwel":9129,"nda":9130,"Ġcotton":9131,"alf":9132,"aski":9133,"rose":9134,"Ġdict":9135,"Ġdiver":9136,"lem":9137,"ĠABC":9138,"ĠSay":9139,"ĠCress":9140,"ĠCyr":9141,"Ġlamb":9142,"ĠMain":9143,"ĠBush":9144,"ĠBanks":9145,"Ġgets":9146,"etime":9147,"idel":9148,"Ġasks":9149,"Ġstrict":9150,"uty":9151,"ĠPubl":9152,"ĠPrest":9153,"ĠDD":9154,"ĠDor":9155,"ĠDud":9156,"Ġisot":9157,"ulu":9158,"Ġalph":9159,"ĠLinc":9160,"ĠNear":9161,"ĠEy":9162,"ĠOregon":9163,"oples":9164,"Ġprosp":9165,"ardine":9166,"Ġyield":9167,"ipes":9168,"uster":9169,"ĠVic":9170,"Ġcomponents":9171,"Ġclim":9172,"pled":9173,"Ġdisagre":9174,"Ġovert":9175,"overeign":9176,"angular":9177,"Ġupset":9178,"enses":9179,"inted":9180,"ĠAsian":9181,"Ġdecay":9182,"Ġpeaking":9183,"ĠLeigh":9184,"Ġsurf":9185,"Ġsurge":9186,"Ġ125":9187,"Ġexpression":9188,"Ġmetre":9189,"Ġrunners":9190,"Ġoperates":9191,"ĠCarmel":9192,"Ġmathem":9193,"Ġgray":9194,"ĠCommons":9195,"Ġhelium":9196,"ĠChristine":9197,"byter":9198,"Ġrefuge":9199,"ĠMcD":9200,"Ġvisiting":9201,"Ġorganised":9202,"Ġ1923":9203,"Ġsentences":9204,"Ġsentiment":9205,"ĠTrust":9206,"ĠTracy":9207,"Ġtempor":9208,"ĠPolit":9209,"Ġshoulder":9210,"ĠHarrison":9211,"Ġtrend":9212,"ettles":9213,"Ġsuperv":9214,"Ġfifteen":9215,"Ġrounds":9216,"Ġrenov":9217,"Ġemployees":9218,"Ġpotentially":9219,"ĠSocial":9220,"ĠRhys":9221,"ĠBenjamin":9222,"Ġjobs":9223,"Ġnewspapers":9224,"ĠErnest":9225,"ĠHawaiian":9226,"Ġwithdrawal":9227,"Ġmechanical":9228,"Ġvenues":9229,"Ġmolecules":9230,"Ġassassination":9231,"Ġtrouble":9232,"ĠSurvey":9233,"ĠPulaski":9234,"ĠAncient":9235,"Ġrhyme":9236,"Ġelaborate":9237,"ĠQueensland":9238,"Ġcollapsed":9239,"ĠDakota":9240,"acecraft":9241,"ĠEventually":9242,"ĠLincol":9243,"ES":9244,"aired":9245,"bound":9246,"ci":9247,"cl":9248,"chens":9249,"krit":9250,"pe":9251,"vant":9252,"Ġsample":9253,"Ġcook":9254,"Ġchest":9255,"enic":9256,"esters":9257,"Ġped":9258,"Ġphen":9259,"Ġtom":9260,"Ġdies":9261,"oust":9262,"ĠTen":9263,"ĠAut":9264,"ĠSat":9265,"ĠSony":9266,"ĠSection":9267,"ĠSisler":9268,"ĠCater":9269,"ĠCase":9270,"ĠCanyon":9271,"Ġnom":9272,"ĠMack":9273,"ĠMaur":9274,"ĠBald":9275,"iri":9276,"otyp":9277,"ĠHy":9278,"Ġstores":9279,"ĠPir":9280,"ĠDie":9281,"unch":9282,"ĠFace":9283,"ĠFarm":9284,"ĠWN":9285,"ĠWASP":9286,"ĠLost":9287,"ĠNat":9288,"agod":9289,"ĠEric":9290,"Ġvice":9291,"illiant":9292,"Ġsuitable":9293,"Ġride":9294,"arded":9295,"seud":9296,"ĠStr":9297,"Ġspacecraft":9298,"apore":9299,"ĠChron":9300,"ĠCharts":9301,"ĠVi":9302,"Ġcontribution":9303,"Ġabol":9304,"ĠHeart":9305,"Ġscar":9306,"acts":9307,"Ġremove":9308,"Ġearning":9309,"Ġquant":9310,"Ġacids":9311,"Ġamph":9312,"Ġentertain":9313,"ernon":9314,"Ġdirectors":9315,"Ġextrat":9316,"Ġartistic":9317,"Ġconstant":9318,"Ġdams":9319,"Ġadvancing":9320,"ĠUSS":9321,"cks":9322,"ĠChristopher":9323,"Ġclassification":9324,"Ġparody":9325,"Ġkills":9326,"Ġanthem":9327,"Ġantiqu":9328,"Ġexpert":9329,"Ġreferring":9330,"Ġtwin":9331,"Ġfactory":9332,"Ġstructural":9333,"Ġputting":9334,"ĠCooper":9335,"Ġcreative":9336,"atinum":9337,"Ġmachines":9338,"ĠValve":9339,"Ġasking":9340,"Ġ1830":9341,"Ġdispute":9342,"ĠSingapore":9343,"Ġdrove":9344,"Ġcompliment":9345,"ĠWoodhouse":9346,"Ġboundaries":9347,"Ġtranslated":9348,"Ġdocumented":9349,"Ġ766":9350,"Ġinhab":9351,"Ġyoungest":9352,"ĠKorea":9353,"ĠChildren":9354,"Ġseeking":9355,"ĠGardner":9356,"Ġcomparison":9357,"Ġcolumns":9358,"Ġtheatrical":9359,"Ġvertical":9360,"imetres":9361,"ĠSimilarly":9362,"minster":9363,"ĠCampbell":9364,"ĠIslamic":9365,"ĠFoundation":9366,"ĠSanskrit":9367,"ĠSupreme":9368,"Ġsurgery":9369,"ĠSorraia":9370,"ĠLincoln":9371,"Ġextratropical":9372,"Grom":9373,"fire":9374,"gon":9375,"gian":9376,"nels":9377,"ua":9378,"zong":9379,"ËĪ":9380,"á¹":9381,"Ġump":9382,"Ġtub":9383,"atum":9384,"Ġcave":9385,"Ġfishing":9386,"Ġfault":9387,"Ġfasc":9388,"esi":9389,"ester":9390,"Ġbrain":9391,"Ġinfer":9392,"Ġtooth":9393,"Ġtoler":9394,"Ġtopped":9395,"Ġmir":9396,"Ġmask":9397,"Ġhook":9398,"Ġhull":9399,"ĠTogether":9400,"ĠSomet":9401,"entle":9402,"star":9403,"ĠCred":9404,"ĠCullen":9405,"eloc":9406,"Ġlies":9407,"Ġlibrary":9408,"acruz":9409,"ĠBidd":9410,"imon":9411,"Ġforth":9412,"ira":9413,"Ġstim":9414,"Ġstock":9415,"ĠPanz":9416,"Ġbeam":9417,"unc":9418,"ĠWhere":9419,"ĠWander":9420,"Ġconj":9421,"ĠLas":9422,"ĠNel":9423,"ĠNatural":9424,"ĠNettles":9425,"ĠanekÄģntavÄģda":9426,"ĠJason":9427,"ĠJardine":9428,"odrom":9429,"Ġrid":9430,"Ġrig":9431,"Ġrising":9432,"akers":9433,"ĠKnow":9434,"Ġplus":9435,"Ġshaft":9436,"Ġspending":9437,"Ġnotice":9438,"ĠChampions":9439,"Ġunlik":9440,"ĠVeer":9441,"Ġinclusion":9442,"Ġenzym":9443,"ensions":9444,"ails":9445,"ĠMars":9446,"Ġproduces":9447,"Ġsubmitted":9448,"Ġcoff":9449,"Ġrevised":9450,"Ġcompleting":9451,"ĠBriggs":9452,"ennium":9453,"Ã©e":9454,"ĠPlan":9455,"Ġeffic":9456,"Ġbridges":9457,"ĠDeep":9458,"Ġreflected":9459,"ĠMcE":9460,"Ġtrials":9461,"Ġorganisation":9462,"Ġexplain":9463,"Ġpersonally":9464,"ĠPriv":9465,"Ġbases":9466,"Ġtwent":9467,"Ġcommunications":9468,"Ġprofit":9469,"Ġsolar":9470,"Ġsket":9471,"Ġrepresentation":9472,"Ġprogramming":9473,"Ġ1907":9474,"ĠNeves":9475,"Ġswim":9476,"Ġprofessor":9477,"ĠImm":9478,"Ġarmament":9479,"Ġcollapse":9480,"Ġfalls":9481,"ydney":9482,"Ġhonour":9483,"Ġcontrad":9484,"Ġremoval":9485,"Ġarchaeology":9486,"ĠPrix":9487,"ĠPrize":9488,"Ġsemif":9489,"Ġquestions":9490,"Ġbirthday":9491,"Ġsatellite":9492,"ĠVeracruz":9493,"Ġfavorable":9494,"Ġprepare":9495,"Ġpowered":9496,"ĠSpecies":9497,"ĠLouisiana":9498,"Ġhyg":9499,"Ġaggreg":9500,"Ġsculptures":9501,"Ġbattleships":9502,"ĠFurthermore":9503,"ĠObser":9504,"ĠBelgium":9505,"ĠIngres":9506,"Ġencountered":9507,"Ġsegment":9508,"ĠChronicles":9509,"ĠTelugu":9510,"ropolitan":9511,"Ġenthus":9512,"ĠDigital":9513,"ĠCresswell":9514,"Ġtemporarily":9515,"ĠBiddenden":9516,"CO":9517,"bra":9518,"equ":9519,"hum":9520,"po":9521,"tz":9522,"uki":9523,"Ġtor":9524,"Ġtip":9525,"inction":9526,"Ġsailed":9527,"Ġwives":9528,"Ġwishes":9529,"Ġfitted":9530,"Ġbom":9531,"Ġbore":9532,"Ġbare":9533,"Ġboys":9534,"Ġtox":9535,"Ġmines":9536,"Ġhidden":9537,"ĠTy":9538,"ĠTony":9539,"ĠSon":9540,"ili":9541,"ĠCant":9542,"ĠCass":9543,"Ġliqu":9544,"Ġgap":9545,"herry":9546,"ĠDa":9547,"ĠDers":9548,"ĠDub":9549,"ĠFreak":9550,"ĠWik":9551,"ĠLind":9552,"agogue":9553,"rift":9554,"ĠEp":9555,"ĠEcc":9556,"ewise":9557,"Ġorigins":9558,"Ġexport":9559,"Ġshares":9560,"ĠâĢĿ":9561,"ĠUpper":9562,"ĠStu":9563,"rite":9564,"ishops":9565,"oking":9566,"Ġclay":9567,"Ġdisband":9568,"Ġapprec":9569,"ibl":9570,"ĠYouth":9571,"aceae":9572,"phoon":9573,"Ġpretty":9574,"Ġupgraded":9575,"Ġevident":9576,"osexual":9577,"Ġcanal":9578,"ansfield":9579,"Ġbuy":9580,"Ġindeed":9581,"Ġpublishing":9582,"Ġ105":9583,"Ġsupplement":9584,"Ġhighways":9585,"ĠZanz":9586,"Ġmainland":9587,"Ġmeters":9588,"Ġrepair":9589,"azer":9590,"aho":9591,"Ġrevol":9592,"Ġdiscussion":9593,"Ġgenera":9594,"ĠClinton":9595,"ĠProte":9596,"Ġweekly":9597,"ycake":9598,"Ġconfront":9599,"incial":9600,"Ġ1922":9601,"Ġtraded":9602,"ĠXII":9603,"ĠWestminster":9604,"Ġconvention":9605,"Ġarriving":9606,"Ġcharted":9607,"Ġjoining":9608,"ĠRegister":9609,"Ġideal":9610,"ĠMagic":9611,"Ġencl":9612,"grad":9613,"brace":9614,"ĠSwitzer":9615,"Ġarmored":9616,"Ġbiological":9617,"Ġobjectives":9618,"Ġnominations":9619,"Ġdispat":9620,"Ġdispers":9621,"Ġkeeping":9622,"Ġinvestigation":9623,"Ġstruggled":9624,"Ġpleasure":9625,"Ġemphasis":9626,"Ġbeliefs":9627,"Ġpulled":9628,"Ġaccomplish":9629,"Ġempire":9630,"Ġchoose":9631,"ĠPattycake":9632,"Ġassembled":9633,"Ġupdated":9634,"ĠARVN":9635,"ĠSioux":9636,"Ġconversation":9637,"Ġdemolished":9638,"howitz":9639,"Ġillegal":9640,"Ġjunior":9641,"Ġphrase":9642,"ĠBennett":9643,"Ġunderwent":9644,"ĠAmanita":9645,"ĠCaesar":9646,"ĠDudley":9647,"ĠChrono":9648,"ĠNevesinje":9649,"ĠDershowitz":9650,"ĠZanzib":9651,"Xe":9652,"dale":9653,"ja":9654,"power":9655,"uzz":9656,"ygen":9657,"zed":9658,"Ġsect":9659,"ito":9660,"itic":9661,"itter":9662,"enger":9663,"Ġfusion":9664,"aria":9665,"Ġban":9666,"Ġpion":9667,"Ġpace":9668,"Ġpages":9669,"icians":9670,"Ġreass":9671,"ĠAf":9672,"Ġthrew":9673,"ĠCart":9674,"Ġlanes":9675,"adi":9676,"acc":9677,"acre":9678,"ĠMall":9679,"ecution":9680,"ĠBird":9681,"ĠIan":9682,"otte":9683,"ĠHur":9684,"ĠHop":9685,"ĠHyd":9686,"ĠPier":9687,"Ġbeings":9688,"Ġwhilst":9689,"ĠGen":9690,"ĠGael":9691,"ĠEight":9692,"Ġsuit":9693,"ĠKÅį":9694,"Ġshift":9695,"Ġshorter":9696,"Ġsharp":9697,"iper":9698,"Ġresolution":9699,"Ġabilities":9700,"Ġrotation":9701,"luded":9702,"Ġjew":9703,"aceous":9704,"Ġfinale":9705,"ternal":9706,"Ġfeud":9707,"Ġfeeding":9708,"Ġpeoples":9709,"Ġintercept":9710,"Ġacycl":9711,"Ġ127":9712,"rams":9713,"Ġ115":9714,"ikk":9715,"Ġsignal":9716,"ĠIndones":9717,"embers":9718,"Ġcarries":9719,"Ġadvice":9720,"linger":9721,"Ġstring":9722,"Ġpublications":9723,"Ġdeter":9724,"Ġstarring":9725,"ĠMcN":9726,"ĠAndre":9727,"Ġeventual":9728,"Ġpresentation":9729,"ĠWeir":9730,"ĠWithout":9731,"ĠPerform":9732,"Ġelectron":9733,"ĠCountry":9734,"ĠParks":9735,"Ġgenetic":9736,"ĠJackets":9737,"Ġtourist":9738,"ĠKeith":9739,"Ġfacil":9740,"Ġfacility":9741,"Ġreduction":9742,"Ġappointment":9743,"Ġdevast":9744,"Ġrebell":9745,"Ġ1861":9746,"ĠPhilipp":9747,"Ġmerely":9748,"ĠMcCart":9749,"Ġ360":9750,"ĠPohl":9751,"Ġcertainly":9752,"Ġdaughters":9753,"Ġpercentage":9754,"Ġcontroller":9755,"Ġrecovery":9756,"Ġpunishment":9757,"ĠCharlotte":9758,"ĠColumbus":9759,"ĠDefense":9760,"Ġarchitectural":9761,"Ġsoutheastern":9762,"Ġneighb":9763,"Ġceremon":9764,"Ġillustrated":9765,"Ġmeasurements":9766,"ĠBuilding":9767,"ĠArgentine":9768,"Ġadvertis":9769,"ĠUsher":9770,"ĠIdaho":9771,"ĠSweden":9772,"Ġreforms":9773,"ĠObserv":9774,"Ġnegotiations":9775,"ĠAbbey":9776,"Ġcinema":9777,"Ġunnamed":9778,"Ġibis":9779,"ĠWWF":9780,"ĠâĤ¹":9781,"Ġneighborhood":9782,"ĠMitchell":9783,"ĠPreston":9784,"ĠWanderers":9785,"Ġunlikely":9786,"ĠSwitzerland":9787,"RNA":9788,"Tube":9789,"van":9790,"yll":9791,"Ġtelling":9792,"Ġtonn":9793,"inÃ¡":9794,"rehens":9795,"Ġsq":9796,"Ġsoci":9797,"Ġsleep":9798,"isle":9799,"Ġben":9800,"Ġbran":9801,"Ġinher":9802,"asks":9803,"Ġdod":9804,"Ġduration":9805,"Ġhosp":9806,"ĠTan":9807,"ĠTales":9808,"ĠSau":9809,"ĠCad":9810,"ĠCirc":9811,"Ġlover":9812,"Ġloud":9813,"ĠMk":9814,"Ġonwards":9815,"Ġongoing":9816,"Ġgarn":9817,"imer":9818,"imeter":9819,"iga":9820,"terior":9821,"Ġstellar":9822,"ĠRick":9823,"ĠDover":9824,"una":9825,"ĠFood":9826,"ĠWelling":9827,"ĠGill":9828,"ĠLad":9829,"ĠList":9830,"ĠLane":9831,"ĠLessing":9832,"ĠNag":9833,"Ġanime":9834,"riarch":9835,"Ġvs":9836,"Ġvir":9837,"Ġsuicide":9838,"Ġsew":9839,"Ġchain":9840,"Ġchicks":9841,"berry":9842,"Ġcompens":9843,"soft":9844,"oken":9845,"pert":9846,"ĠHealth":9847,"ultan":9848,"Ġmanip":9849,"Ġenemies":9850,"Ġoffering":9851,"ĠYellow":9852,"Ġpref":9853,"lesh":9854,"oyle":9855,"Ġthemed":9856,"Ġdecisions":9857,"Ġ83":9858,"obi":9859,"Ġacute":9860,"ĠJoh":9861,"ucky":9862,"Ġsuppl":9863,"Ġ168":9864,"ĠZh":9865,"Ġ174":9866,"Ġsigns":9867,"ĠIsesi":9868,"asha":9869,"Ġadvoc":9870,"Ġbrigades":9871,"ĠHerald":9872,"ĠHeritage":9873,"ĠChristians":9874,"ĠParamount":9875,"rett":9876,"Ġhelping":9877,"Ġcontrols":9878,"ospel":9879,"Ġhistorically":9880,"Ġsignificance":9881,"Ġreader":9882,"Ġwider":9883,"ĠYouTube":9884,"Ġcircle":9885,"Ġprofession":9886,"ĠMadero":9887,"Ġclosure":9888,"Ġ350":9889,"Ġfundamental":9890,"ĠÃī":9891,"Ġillness":9892,"ĠFeel":9893,"ĠEverton":9894,"Ġdepicting":9895,"ĠInterchange":9896,"ĠHoover":9897,"ĠTwenty":9898,"ĠDelaware":9899,"Ġbatteries":9900,"Ġsevent":9901,"Ġmagnetic":9902,"Ġelevation":9903,"Ġninet":9904,"Ġaggressive":9905,"Ġpatterns":9906,"Ġwaiting":9907,"Ġmobile":9908,"ĠNazi":9909,"ĠProvince":9910,"ĠBelgian":9911,"ĠLeonard":9912,"ĠAlberta":9913,"Ġtravelled":9914,"Ġpregnancy":9915,"ĠWalker":9916,"Ġgravity":9917,"Ġproportion":9918,"ĠToninÃ¡":9919,"penter":9920,"Ġaccompanying":9921,"ĠNadal":9922,"ĠArkansas":9923,"ĠCredits":9924,"ĠStuart":9925,"ĠGaelic":9926,"ĠMcCartney":9927,"60":9928,"CU":9929,"coming":9930,"mont":9931,"where":9932,"Å«":9933,"Ġtut":9934,"Ġwish":9935,"Ġwors":9936,"Ġca":9937,"Ġcategory":9938,"Ġbull":9939,"Ġpseud":9940,"Ġdual":9941,"Ġho":9942,"ĠAh":9943,"ĠSyn":9944,"ĠSydney":9945,"ila":9946,"sters":9947,"ĠCit":9948,"ĠCricket":9949,"ĠCanning":9950,"Ġliv":9951,"aman":9952,"ĠBou":9953,"ĠBuck":9954,"Ġgang":9955,"iger":9956,"ĠPic":9957,"ĠPak":9958,"ĠRu":9959,"ĠRav":9960,"ĠRivers":9961,"ĠDS":9962,"ĠDod":9963,"ĠDick":9964,"ĠDram":9965,"ĠFif":9966,"ĠFalls":9967,"raid":9968,"ĠGot":9969,"osph":9970,"ĠLover":9971,"ĠLiving":9972,"andra":9973,"estyle":9974,"Ġriding":9975,"ĠKate":9976,"ĠKau":9977,"Ġshop":9978,"Ġshirt":9979,"Ġkid":9980,"ĠUtah":9981,"Ġspin":9982,"Ġspots":9983,"ĠVis":9984,"Ġclin":9985,"Ġcler":9986,"endar":9987,"Ġrot":9988,"Ġpermission":9989,"Ġjury":9990,"Ġpartnership":9991,"phant":9992,"Ġshear":9993,"athy":9994,"Ġassess":9995,"ĠSeattle":9996,"Ġaccum":9997,"Ġraising":9998,"Ġtrapped":9999,"aja":10000,"erto":10001,"inners":10002,"Ġ118":10003,"emble":10004,"Ġpassion":10005,"Ġcharacteristic":10006,"ĠAdela":10007,"ĠAllosaurus":10008,"yself":10009,"Ġpromin":10010,"appy":10011,"Ġrefere":10012,"Ġcaps":10013,"Ġhanded":10014,"Ġcommands":10015,"Ġcommanders":10016,"Ġrequires":10017,"Ġsimilarly":10018,"Ġfreedom":10019,"Ġterrain":10020,"hemical":10021,"ĠCentre":10022,"Ġ1902":10023,"Ġdestroyer":10024,"regular":10025,"Ġ1895":10026,"Ġvalues":10027,"Ġfavour":10028,"Ġconnecting":10029,"ĠMadonna":10030,"Ġclosing":10031,"ĠKhan":10032,"ĠCrusad":10033,"Ġdonated":10034,"Ġ1840":10035,"Ġembarked":10036,"Ġindicates":10037,"Ġpairs":10038,"Ġgirls":10039,"Ġconflicts":10040,"Ġpolicies":10041,"Ġconversion":10042,"ĠCritics":10043,"Ġplatoon":10044,"Ġsearching":10045,"Ġcancelled":10046,"Ġconcentrated":10047,"Ġfarmers":10048,"Ġoxygen":10049,"Ġprinted":10050,"Ġuniversities":10051,"Ġpreparing":10052,"Ġsteps":10053,"Ġdoctrine":10054,"Ġmolecular":10055,"ĠDerff":10056,"ĠWatson":10057,"Ġexecution":10058,"ĠHeadquarters":10059,"Ġsubsid":10060,"Ġaimed":10061,"Ġdubbed":10062,"Ġexactly":10063,"ĠBulgar":10064,"Ġhydrogen":10065,"Ġaccurate":10066,"Ġdecorated":10067,"Ê»i":10068,"Ġanticip":10069,"ĠStavanger":10070,"Ġphenomen":10071,"Ġacyclic":10072,"ĠAdelaide":10073,"dream":10074,"har":10075,"nh":10076,"pa":10077,"rad":10078,"Ġwore":10079,"itia":10080,"Ġfru":10081,"Ġfulf":10082,"Ġflesh":10083,"aration":10084,"Ġbanks":10085,"Ġinning":10086,"Ġtouring":10087,"Ġmand":10088,"Ġmental":10089,"Ġdense":10090,"Ġdanger":10091,"ĠhPa":10092,"Ġreop":10093,"Ġreaches":10094,"ĠAle":10095,"ĠAuthor":10096,"street":10097,"Ġlaugh":10098,"Ġnave":10099,"ĠMix":10100,"ĠBorn":10101,"ĠBapt":10102,"ĠBatter":10103,"ĠBoys":10104,"Ġgor":10105,"Ġgift":10106,"olis":10107,"ĠHit":10108,"ĠHNC":10109,"Ġbeating":10110,"Ġbears":10111,"Ġbeats":10112,"ĠRag":10113,"ĠRace":10114,"ĠFut":10115,"ĠFul":10116,"ĠGround":10117,"romet":10118,"Ġanch":10119,"Ġrushing":10120,"Ġseats":10121,"ighters":10122,"atever":10123,"ĠKings":10124,"ova":10125,"asts":10126,"Ġclothes":10127,"Ġabroad":10128,"Ġevolution":10129,"Ġevolved":10130,"oyd":10131,"ilda":10132,"alsa":10133,"ĠArn":10134,"Ġpositively":10135,"ĠLeeds":10136,"Ġ04":10137,"Ġ169":10138,"Ġtransmission":10139,"ramid":10140,"Ġbacking":10141,"ĠZoo":10142,"inness":10143,"Ġmetall":10144,"Ġcontinental":10145,"Ġdistrib":10146,"Ġoperas":10147,"Ġphone":10148,"ĠColl":10149,"ĠChristi":10150,"ĠBeau":10151,"Ġdetected":10152,"issioned":10153,"ĠMcM":10154,"ographical":10155,"Ġfewer":10156,"Ġcrash":10157,"Ġstrongest":10158,"Ġsolution":10159,"ficial":10160,"Ġfriendly":10161,"ĠHarry":10162,"Ġadmin":10163,"Ġfunctions":10164,"Ġtenure":10165,"Ġballad":10166,"Ġmountains":10167,"Ġranks":10168,"ĠMorgan":10169,"Ġanimated":10170,"ĠSerbs":10171,"ĠImport":10172,"Ġirregular":10173,"Ġgolden":10174,"ĠDaydream":10175,"Ġcivilians":10176,"Ġmaintaining":10177,"ĠCorpus":10178,"Ġunclear":10179,"Ġwithdrawn":10180,"ĠDonald":10181,"ĠAngelou":10182,"Ġfailing":10183,"ĠJeremy":10184,"Ġtemperatures":10185,"Ġcredit":10186,"Ġcredits":10187,"Ġlogic":10188,"itchcraft":10189,"Ġpilots":10190,"Ġinteractions":10191,"Ġpursuit":10192,"Ġinternation":10193,"Ġharbour":10194,"Ġcompositions":10195,"ĠHawaiÊ»i":10196,"ĠHalo":10197,"Ġmelody":10198,"ĠFrancis":10199,"Ġrecommend":10200,"ĠBooks":10201,"Ġqualified":10202,"ĠHugh":10203,"ĠNightingale":10204,"Ġprisoners":10205,"ĠReturn":10206,"ĠColdrum":10207,"Ġsolely":10208,"ĠBroadway":10209,"Ġwickets":10210,"ĠWyoming":10211,"Ġsympt":10212,"Ġwealthy":10213,"Ġleukemia":10214,"Ġvegetation":10215,"ĠHungarian":10216,"schild":10217,"ĠDescription":10218,"ĠBaseball":10219,"ĠTigers":10220,"ĠDynasty":10221,"Ġvertex":10222,"ĠFernandez":10223,"Ġashore":10224,"ĠInternet":10225,"Ġtissue":10226,"Ġcousin":10227,"ĠEccl":10228,"ĠDerfflinger":10229,"MA":10230,"bro":10231,"fe":10232,"ht":10233,"mates":10234,"uters":10235,"zer":10236,"Ã¬":10237,"Ġtort":10238,"atom":10239,"orph":10240,"Ġcosm":10241,"eness":10242,"Ġfil":10243,"Ġbon":10244,"Ġpec":10245,"ashes":10246,"Ġhind":10247,"Ġhym":10248,"ĠAA":10249,"ĠShip":10250,"ĠSora":10251,"amer":10252,"ĠMes":10253,"ĠMol":10254,"uras":10255,"Ġgaining":10256,"olence":10257,"ima":10258,"igs":10259,"ĠHad":10260,"uther":10261,"ĠDw":10262,"ĠDot":10263,"ulates":10264,"ĠLibrary":10265,"agi":10266,"oded":10267,"ĠEconom":10268,"ĠOw":10269,"Ġveter":10270,"alling":10271,"Ġchampions":10272,"ĠKody":10273,"Ġplatinum":10274,"Ġshr":10275,"ĠUran":10276,"ourse":10277,"ormal":10278,"Ġresol":10279,"ĠHeavy":10280,"Ġpermitted":10281,"ĠAlmost":10282,"Ġscre":10283,"ricts":10284,"izers":10285,"Ġovers":10286,"Ġacted":10287,"Ġassembly":10288,"anya":10289,"Ġ106":10290,"Ġepic":10291,"Ġsurprise":10292,"tenance":10293,"Ġnumbered":10294,"Ġ167":10295,"itsu":10296,"Ġobtain":10297,"Ġrevival":10298,"ĠMaya":10299,"Ġinflict":10300,"Ġownership":10301,"Ġsimpl":10302,"Ġsuccession":10303,"Ġsuccessive":10304,"Ġrestore":10305,"Ġincreases":10306,"Ġstarter":10307,"Ġreviewed":10308,"ambo":10309,"eltown":10310,"ĠTrond":10311,"Ġcoverage":10312,"Ġexcell":10313,"ĠBarbar":10314,"ĠRomania":10315,"Ġvictim":10316,"iscus":10317,"Ġ1903":10318,"ĠNeil":10319,"Ġcougars":10320,"Ġgoods":10321,"Ġrede":10322,"Ġredes":10323,"Ġballs":10324,"Ġoccurring":10325,"ĠActor":10326,"Ġidentify":10327,"Ġanimation":10328,"Ġ1889":10329,"Ġmeasuring":10330,"Ġpenet":10331,"legraph":10332,"Ġheavier":10333,"Ġcruisers":10334,"ĠAntimony":10335,"underst":10336,"ĠYears":10337,"Ġobservation":10338,"Ġconsistent":10339,"ĠBradstreet":10340,"ĠTrees":10341,"exp":10342,"Ġreinforced":10343,"Ġseriously":10344,"Ġtargets":10345,"Ġlifetime":10346,"Ġgrandfather":10347,"Ġadministrative":10348,"Ġwalking":10349,"ĠAdminist":10350,"Ġwait":10351,"blazer":10352,"Ġdiamond":10353,"ĠJurchens":10354,"Ġparliamentary":10355,"hua":10356,"Ġbeauty":10357,"Ġvirtually":10358,"Ġbowling":10359,"ĠHonor":10360,"Ġpregnant":10361,"Ġsanct":10362,"Ġrelegated":10363,"Ġnoble":10364,"ĠTransportation":10365,"ĠBedell":10366,"Ġappropriate":10367,"ĠHampshire":10368,"ĠRothschild":10369,"ĠArabs":10370,"Ġphotographs":10371,"ĠMantell":10372,"Ġinterpreted":10373,"ĠCyrus":10374,"ĠXIII":10375,"ĠWellington":10376,"Ar":10377,"CW":10378,"ED":10379,"bow":10380,"lights":10381,"zes":10382,"Æ°":10383,"Ġtaste":10384,"inces":10385,"Ġsings":10386,"Ġsized":10387,"Ġsitting":10388,"Ġcode":10389,"Ġcrick":10390,"enous":10391,"Ġfame":10392,"Ġpp":10393,"Ġtours":10394,"roc":10395,"Ġda":10396,"Ġdust":10397,"Ġhills":10398,"stal":10399,"ĠCome":10400,"Ġlad":10401,"Ġlumber":10402,"Ġnaming":10403,"adh":10404,"ĠMas":10405,"ĠMong":10406,"urance":10407,"ĠBoss":10408,"ĠIOC":10409,"Ġgat":10410,"olin":10411,"Ġforg":10412,"ĠHem":10413,"Ġstyl":10414,"ĠPole":10415,"ĠRÃ¤":10416,"ĠData":10417,"emen":10418,"rav":10419,"ĠGw":10420,"osity":10421,"ĠLiter":10422,"ĠLÃ¼":10423,"ĠLooking":10424,"ĠEg":10425,"ĠEst":10426,"ĠEtty":10427,"ifest":10428,"Ġvault":10429,"Ġseized":10430,"ework":10431,"Ġshru":10432,"ĠStop":10433,"arya":10434,"Ġherd":10435,"Ġperceived":10436,"Ġscrap":10437,"Ġjet":10438,"Ġagency":10439,"Ġattitude":10440,"Ġprefect":10441,"Ġconsent":10442,"icking":10443,"Ġcanon":10444,"Ġregistered":10445,"Ġqueen":10446,"Ġrains":10447,"ĠShim":10448,"anka":10449,"rowed":10450,"Ġbacked":10451,"Ġdescript":10452,"Ġdepiction":10453,"ĠShell":10454,"Ġrevived":10455,"Ġcontinuous":10456,"Ġextend":10457,"Ġextinct":10458,"ĠBright":10459,"Ġdownstream":10460,"Ġrunway":10461,"Ġinfection":10462,"Ġsixteen":10463,"Ġgrade":10464,"Ġguides":10465,"Ġvaried":10466,"inae":10467,"Ġbelieving":10468,"Ġexplicit":10469,"Ġengagement":10470,"ĠManuel":10471,"Ġcapturing":10472,"ĠTristan":10473,"Ġhelps":10474,"Ġ230":10475,"Ġ240":10476,"Ġauthorized":10477,"Ġrepresentatives":10478,"ĠHarv":10479,"rieved":10480,"Ġprize":10481,"Ġpitching":10482,"Ġpredict":10483,"Ġpromotional":10484,"Ġcommenting":10485,"Ġaudition":10486,"Ġarmies":10487,"Ġflooded":10488,"ĠChristianity":10489,"ĠGrace":10490,"Ġreactions":10491,"Ġsynagogue":10492,"Ġhoused":10493,"Ġ1849":10494,"Ġparticipate":10495,"ĠTommy":10496,"Ġblocked":10497,"ĠStudies":10498,"abyrin":10499,"ĠCampaign":10500,"ĠCollection":10501,"Ġvotes":10502,"Ġparent":10503,"Ġunderstood":10504,"ĠForeign":10505,"ĠHumph":10506,"Ġmorph":10507,"Ġheroes":10508,"ĠContem":10509,"Ġhabitats":10510,"Ġkilometers":10511,"Ġsecretary":10512,"Ġconstitu":10513,"Ġquestioned":10514,"Ġdisplaced":10515,"ĠRoom":10516,"Ġsporting":10517,"Ġchampionships":10518,"Ġroller":10519,"Ġdeparted":10520,"ĠPalestinian":10521,"Ġresemble":10522,"Ġtasked":10523,"Ġhamper":10524,"ĠBruce":10525,"ĠOhio":10526,"ĠMLB":10527,"Ġpuzzles":10528,"Ġpounder":10529,"ĠLocal":10530,"Ġsuddenly":10531,"Ġbalance":10532,"ĠRhodesian":10533,"ĠMargaret":10534,"ĠJoyful":10535,"Ġclothing":10536,"Ġmanuscripts":10537,"Ġbodyline":10538,"Ġannouncement":10539,"Ġentertainment":10540,"ĠZanzibar":10541,"Ġhospitals":10542,"abyrinth":10543,"CE":10544,"cover":10545,"mn":10546,"uations":10547,"Ä«":10548,"Ġsin":10549,"Ġsib":10550,"Ġwre":10551,"Ġwolf":10552,"itely":10553,"itches":10554,"Ġboot":10555,"Ġpron":10556,"Ġpistol":10557,"asa":10558,"icus":10559,"ĠTroph":10560,"Ġreun":10561,"ĠAub":10562,"ĠSel":10563,"ĠSant":10564,"ilis":10565,"ĠCy":10566,"Ġlumin":10567,"Ġecho":10568,"Ġnit":10569,"ĠMoon":10570,"ĠMorning":10571,"ĠIowa":10572,"Ġgene":10573,"irts":10574,"ĠHom":10575,"ĠHannah":10576,"Ġstabil":10577,"ĠPam":10578,"ĠRaid":10579,"thren":10580,"ĠDress":10581,"ĠDennis":10582,"ĠWrapped":10583,"ĠWrestling":10584,"Ġconce":10585,"ĠLyn":10586,"ĠNM":10587,"ĠNine":10588,"ĠJess":10589,"Ġcomfort":10590,"oping":10591,"Ġrays":10592,"ocy":10593,"ĠKyle":10594,"Ġshrine":10595,"ĠStars":10596,"Ġlect":10597,"apur":10598,"Ġunt":10599,"Ġunst":10600,"ĠVerm":10601,"ĠVeg":10602,"Ġcomponent":10603,"Ġcompilation":10604,"Ġresid":10605,"ĠHeb":10606,"ĠAlg":10607,"Ġscorer":10608,"arest":10609,"ensively":10610,"wegian":10611,"atha":10612,"Ġflies":10613,"Ġendors":10614,"Ġcoaching":10615,"Ġ108":10616,"Ġtranscription":10617,"Ġrecept":10618,"ĠZagre":10619,"Ġmainstream":10620,"Ġ151":10621,"Ġconcession":10622,"Ġobvious":10623,"ĠIsle":10624,"Ġdistances":10625,"Ġdistricts":10626,"Ġinsurg":10627,"ĠBlu":10628,"Ã©d":10629,"Ġbrut":10630,"Ġedited":10631,"ĠBeat":10632,"ĠBeeton":10633,"Ġapproaches":10634,"Ġhumor":10635,"ĠÂµ":10636,"Ġreplied":10637,"ĠCharm":10638,"Ġarchbishop":10639,"Ġspeaker":10640,"Ġconvey":10641,"Ġaffairs":10642,"Ġfactor":10643,"ĠNev":10644,"brush":10645,"Ġrocks":10646,"ĠMonkey":10647,"Ġfavou":10648,"Ġlacking":10649,"Ġzomb":10650,"Ġindustries":10651,"ĠSlayer":10652,"Ġterritorial":10653,"Ġruler":10654,"Ġmultipl":10655,"Ġpersist":10656,"mingham":10657,"Ġmemories":10658,"Ġgrave":10659,"guard":10660,"Ġdenomin":10661,"racks":10662,"ĠInterstate":10663,"Ġceleb":10664,"Ġsalv":10665,"Ġkickoff":10666,"Ġtouchdowns":10667,"Ġpuppet":10668,"ĠHaitian":10669,"Ġrescued":10670,"Ġcandidates":10671,"ĠPopular":10672,"ĠNCAA":10673,"Ġfragment":10674,"ĠBirmingham":10675,"Ġfastest":10676,"ĠCreutz":10677,"Ġteachers":10678,"Ġcomprised":10679,"Ġarrangements":10680,"ĠGregory":10681,"Ġaerodrom":10682,"ĠSkinner":10683,"Ġundertaken":10684,"ĠHellblazer":10685,"Ġdisturbance":10686,"Ġvicinity":10687,"ĠBosn":10688,"Ġjuven":10689,"Ġicon":10690,"Ġdependent":10691,"Ġstrategic":10692,"Ġabsorbed":10693,"Ġflew":10694,"ocaust":10695,"Ġtickets":10696,"ĠPalmyrene":10697,"Ġrestrictions":10698,"Ġmystery":10699,"ĠStaley":10700,"Ã¶nen":10701,"ĠTokyo":10702,"Ġalphab":10703,"Ġmathemat":10704,"ikkÃ¶nen":10705,"ĠEcclestone":10706,"ĠTrondheim":10707,"ĠRÃ¤ikkÃ¶nen":10708,"ĠVegas":10709,"jan":10710,"no":10711,"nall":10712,"ss":10713,"uating":10714,"vent":10715,"zona":10716,"Ġtrough":10717,"inaw":10718,"Ġsweet":10719,"Ġward":10720,"Ġworn":10721,"Ġwrest":10722,"aters":10723,"orage":10724,"ario":10725,"Ġpunt":10726,"rooms":10727,"Ġhitting":10728,"ĠTit":10729,"ĠTong":10730,"ĠTree":10731,"Ġreag":10732,"ĠAges":10733,"ĠSultan":10734,"ĠCurt":10735,"ĠIA":10736,"olics":10737,"idation":10738,"ĠHong":10739,"ĠHair":10740,"ĠPagan":10741,"ĠRat":10742,"ĠRul":10743,"unning":10744,"ĠLess":10745,"ĠLiz":10746,"ĠLoy":10747,"ĠNi":10748,"Ġatop":10749,"ĠJag":10750,"ags":10751,"Ġhearing":10752,"odium":10753,"ĠOst":10754,"Ġvital":10755,"anther":10756,"ocal":10757,"ĠKle":10758,"ĠKrist":10759,"ĠStand":10760,"ĠChan":10761,"ĠVik":10762,"Ġincur":10763,"Ġaboard":10764,"achute":10765,"Ġenorm":10766,"veland":10767,"Ġpoets":10768,"ĠMarie":10769,"Ġrelatives":10770,"Ġacoust":10771,"Ġfourteen":10772,"ĠReagan":10773,"ĠJoint":10774,"Ġlocally":10775,"Ġpopul":10776,"ĠZe":10777,"Ġmaintenance":10778,"Ġ111":10779,"Ġminers":10780,"Ġminimal":10781,"Ġextending":10782,"Ġextensively":10783,"ĠBrack":10784,"tym":10785,"ĠPlaces":10786,"Ġmature":10787,"Ġmatters":10788,"Ġphosph":10789,"Ġbrilliant":10790,"Ġedit":10791,"ĠDead":10792,"Ġjustice":10793,"Ġpossess":10794,"Ġmedal":10795,"Ġdrinking":10796,"Ġopposing":10797,"ĠOrd":10798,"Ġsugar":10799,"luence":10800,"Ġmembrane":10801,"Ġcurved":10802,"Ġbehalf":10803,"Ġmyster":10804,"Ġ220":10805,"Ġ261":10806,"Ġ1901":10807,"Ġ1906":10808,"Ġgenes":10809,"Ġpraising":10810,"ĠFederation":10811,"Ġ1897":10812,"ĠHighland":10813,"Ġcircuit":10814,"Ġaudio":10815,"ĠSerb":10816,"Ġarguing":10817,"Ġcutting":10818,"Ġtraveling":10819,"Ġmachinery":10820,"ĠQuiney":10821,"Ġescaped":10822,"Ġbusinesses":10823,"Ġpeninsula":10824,"Ġchapters":10825,"Ġarchaeologists":10826,"ĠSingh":10827,"ĠMeteorological":10828,"ĠOpera":10829,"Ġobservatory":10830,"Ġconcepts":10831,"Ġconsistently":10832,"Ġbombing":10833,"nyi":10834,"Ġmarketing":10835,"ĠNorwegian":10836,"Ġ1819":10837,"ĠTrue":10838,"Ġexhibition":10839,"Ġuniverse":10840,"Ġrequirements":10841,"ĠSenator":10842,"Ġpictures":10843,"ĠMatthew":10844,"Ġagriculture":10845,"Ġbatsmen":10846,"ĠArizona":10847,"Ġsending":10848,"ĠCambodian":10849,"Ġhoriz":10850,"ĠCleveland":10851,"Ġexclusive":10852,"Ġaerial":10853,"Ġlaboratory":10854,"ĠKennedy":10855,"ĠArchaeological":10856,"ĠPrincess":10857,"Ġliner":10858,"Ġrubber":10859,"ĠHughes":10860,"Ġtalent":10861,"ĠHobbs":10862,"Ġrecurring":10863,"ĠProfessor":10864,"Ġintellectual":10865,"ĠCorbet":10866,"ĠNavar":10867,"Ġcomplimented":10868,"Ġtubes":10869,"Ġconjunction":10870,"ĠBaptist":10871,"Ã¬nh":10872,"Ġcrickets":10873,"ĠZagreb":10874,"EA":10875,"VP":10876,"kes":10877,"parts":10878,"rÃŃ":10879,"time":10880,"Ã¢":10881,"ÉĻ":10882,"ĠÄ":10883,"Ġæ":10884,"Ġath":10885,"iner":10886,"Ġsick":10887,"oric":10888,"Ġcash":10889,"Ġfaster":10890,"Ġing":10891,"Ġinduct":10892,"ali":10893,"ingray":10894,"Ġpushing":10895,"Ġmood":10896,"Ġmyself":10897,"ĠTak":10898,"ĠAud":10899,"ĠSet":10900,"ĠSox":10901,"ĠCu":10902,"ĠCrab":10903,"Ġecc":10904,"aduct":10905,"acon":10906,"ĠMond":10907,"ĠBM":10908,"ĠBox":10909,"Ġascend":10910,"ĠHurricanes":10911,"owed":10912,"ĠRI":10913,"ĠDra":10914,"ĠDance":10915,"ĠDoyle":10916,"ĠFat":10917,"ĠFinn":10918,"ĠFiles":10919,"Ġalive":10920,"ĠLam":10921,"ĠLiao":10922,"ĠNASA":10923,"umi":10924,"ested":10925,"agers":10926,"iller":10927,"Ġdeals":10928,"ĠInvest":10929,"Ġracing":10930,"ocent":10931,"ocation":10932,"Ġexceed":10933,"earing":10934,"Ġspawn":10935,"ipel":10936,"aping":10937,"ĠChampion":10938,"Ġunw":10939,"Ġunrest":10940,"ĠVand":10941,"Ġincom":10942,"Ġcomprom":10943,"Ġintr":10944,"Ġintegr":10945,"Ġclimb":10946,"Ġabuse":10947,"Ġusers":10948,"Ġusual":10949,"Ġapply":10950,"overy":10951,"Ġenforce":10952,"Ġimperial":10953,"kef":10954,"ensus":10955,"Ġcommenced":10956,"Ġsheep":10957,"ribi":10958,"Ġallocated":10959,"Ġcentimetres":10960,"Ġdece":10961,"Ġdecomm":10962,"ĠMarge":10963,"ĠComedy":10964,"ocking":10965,"Ġassert":10966,"ĠSeven":10967,"Ġacceler":10968,"ĠLeices":10969,"ĠLegend":10970,"ĠReines":10971,"Ġtrains":10972,"Ġtrails":10973,"Ġpresents":10974,"Ġ154":10975,"ĠJohnny":10976,"Ġmini":10977,"azing":10978,"Ġcomplement":10979,"Ġcouldn":10980,"Ġdiscont":10981,"Ġoperational":10982,"ĠCarpenter":10983,"Ġprovincial":10984,"ĠPlateau":10985,"ĠCloud":10986,"Ġadvised":10987,"Ġgovernments":10988,"Ġguide":10989,"Ġguarant":10990,"Ġweekend":10991,"ĠGuine":10992,"Ġmargin":10993,"ĠEuropa":10994,"ometric":10995,"Ġportr":10996,"Ġtracked":10997,"Ġexplore":10998,"Ġexploration":10999,"Ġdemon":11000,"Ġlegacy":11001,"Ġcourses":11002,"Ġsoldier":11003,"ĠAssy":11004,"Ġstatements":11005,"Ġobsc":11006,"Ġaffil":11007,"ĠAtlÃ©t":11008,"Ġpredicted":11009,"Ġlacked":11010,"ĠPartington":11011,"Ġargument":11012,"Ġdevice":11013,"Ġmotif":11014,"Ġzinc":11015,"Ġhostile":11016,"ĠCrash":11017,"Ġ1878":11018,"Ġinvestment":11019,"ĠEgyptians":11020,"Ġtransported":11021,"Ġtested":11022,"ĠAnti":11023,"ĠLaure":11024,"Ġautobi":11025,"ĠMetro":11026,"ĠHolocaust":11027,"Ġpresidential":11028,"ĠOperations":11029,"Ġexamination":11030,"ĠTrail":11031,"ĠFinally":11032,"ĠJustin":11033,"ĠSixth":11034,"Ġprecip":11035,"ĠBrenda":11036,"Ġduet":11037,"Ġbeaten":11038,"Ġfamiliar":11039,"Ġcamer":11040,"Ġneighbour":11041,"ĠCommunity":11042,"ĠJosÃ©":11043,"Ġuniversal":11044,"Ġvenue":11045,"Ġtimber":11046,"ĠLucas":11047,"ĠWorks":11048,"ĠKenneth":11049,"Ġhouseholds":11050,"ĠArchaeology":11051,"ĠGraham":11052,"Ġenlar":11053,"Ġimmigration":11054,"ĠFlower":11055,"Ġindigenous":11056,"Ġsteadily":11057,"Ġrenewed":11058,"Ġstere":11059,"ĠRockef":11060,"ĠVulcan":11061,"ĠKyra":11062,"Ġfuneral":11063,"ĠGlobe":11064,"Ġpyramid":11065,"Ġrevenue":11066,"Ġpropaganda":11067,"Ġï»":11068,"Ġtombs":11069,"agoda":11070,"Ġtwentieth":11071,"Ġcontradict":11072,"iblical":11073,"bracelet":11074,"htwald":11075,"ĠUrania":11076,"ĠHumphrey":11077,"ĠContemporary":11078,"ĠAtlÃ©tico":11079,"bal":11080,"gas":11081,"mat":11082,"xim":11083,"Ġtel":11084,"onian":11085,"Ġsav":11086,"eded":11087,"athetic":11088,"orough":11089,"Ġcemetery":11090,"aro":11091,"Ġbeds":11092,"anville":11093,"Ġpink":11094,"Ġmal":11095,"Ġmate":11096,"Ġhi":11097,"Ġreward":11098,"ĠSle":11099,"ĠSymph":11100,"ĠCov":11101,"ĠCry":11102,"Ġeating":11103,"Ġnut":11104,"adic":11105,"ĠMyc":11106,"ĠMission":11107,"Ġgri":11108,"ivation":11109,"terf":11110,"ĠHockey":11111,"Ġstap":11112,"ayne":11113,"ĠPs":11114,"ĠRic":11115,"ĠRaf":11116,"ĠDal":11117,"ĠFried":11118,"ods":11119,"ĠEve":11120,"Ġproceeded":11121,"ifeng":11122,"illas":11123,"oret":11124,"ĠIns":11125,"Ġrivals":11126,"Ġseas":11127,"udo":11128,"ĠKer":11129,"ĠKon":11130,"Ġpled":11131,"Ġplag":11132,"Ġplate":11133,"Ġplacing":11134,"Ġshield":11135,"ĠStat":11136,"osts":11137,"ĠChang":11138,"ogan":11139,"hedruli":11140,"Ġclar":11141,"ĠThai":11142,"Ġ1800":11143,"Ġdisrupt":11144,"Ġjaw":11145,"Ġenvelop":11146,"Ġoffshore":11147,"ĠYam":11148,"anga":11149,"Ġprest":11150,"Ġpole":11151,"issions":11152,"Ġcanals":11153,"Ġretain":11154,"Ġretail":11155,"Ġspeculation":11156,"Ġquad":11157,"Ġquiet":11158,"Ġquoted":11159,"Ġacre":11160,"Ġamid":11161,"Ġ102":11162,"Ġsingers":11163,"ernoot":11164,"Ġ171":11165,"Ġdevelopers":11166,"Ġrepairs":11167,"Ġsmoke":11168,"aze":11169,"Ġcontinu":11170,"Ġmayor":11171,"Ġdistant":11172,"Ġinsects":11173,"ĠBlues":11174,"ĠAustrian":11175,"Ġwarned":11176,"Ġairports":11177,"Ġconstantly":11178,"Ġ131":11179,"ĠColomb":11180,"ĠGuild":11181,"Ġports":11182,"Ġportions":11183,"Ġslopes":11184,"ĠMcK":11185,"Ġtrio":11186,"Ġvisits":11187,"Ġapproaching":11188,"Ġstorylines":11189,"Ġmarking":11190,"Ġlegit":11191,"ĠComputer":11192,"ĠComposition":11193,"ĠCompanies":11194,"Ġmagical":11195,"Ġconvict":11196,"Ġconventional":11197,"Ġreportedly":11198,"Ġposts":11199,"ĠAfricaine":11200,"Äģh":11201,"ĠGlanville":11202,"Ġpriests":11203,"Ġvaluable":11204,"Ġconnections":11205,"Ġstudying":11206,"Ġvolumes":11207,"Ġfunded":11208,"mediate":11209,"ĠPlayers":11210,"Ġpersons":11211,"ĠAgency":11212,"ĠSuperman":11213,"Ġthreats":11214,"Ġbreaks":11215,"Ġminority":11216,"Ġautumn":11217,"Ġhappen":11218,"ĠFranklin":11219,"ĠRussell":11220,"awny":11221,"Ġtalks":11222,"Ġcelebrate":11223,"Ġsexuality":11224,"ĠKaifeng":11225,"ĠFerd":11226,"Ġconcentration":11227,"laimed":11228,"Ġhomosexual":11229,"Ġvoices":11230,"ĠKeys":11231,"ĠVillaret":11232,"ĠLloyd":11233,"Ġhorror":11234,"ĠRailroad":11235,"ĠAlfa":11236,"Ġcalculated":11237,"Ġflagship":11238,"ĠMovie":11239,"ĠBernard":11240,"Ġsponsored":11241,"Ġignored":11242,"Ġwicket":11243,"ĠRemix":11244,"ĠLancaster":11245,"Ġchallenging":11246,"Ġexhausted":11247,"Ġabsolute":11248,"Ġinaugural":11249,"Ġdensity":11250,"Ġtributaries":11251,"Ġdivorce":11252,"arthy":11253,"ĠMachine":11254,"ĠCecil":11255,"Ġcondemned":11256,"ĠATP":11257,"ĠBanksia":11258,"ĠPirates":11259,"ĠCantrell":11260,"ĠMkhedruli":11261,"Ġscreens":11262,"ĠTrophy":11263,"ĠHebrew":11264,"ĠCharmbracelet":11265,"ĠNavarro":11266,"ĠVandernoot":11267,"Ġï»¿":11268,"OM":11269,"Sh":11270,"aud":11271,"bi":11272,"dict":11273,"eh":11274,"fish":11275,"gud":11276,"iors":11277,"nik":11278,"pet":11279,"sis":11280,"wall":11281,"Æ¡":11282,"Ġà":11283,"Ġtorn":11284,"Ġtasks":11285,"Ġaf":11286,"Ġsaint":11287,"Ġsoph":11288,"Ġwaves":11289,"atra":11290,"itis":11291,"itudes":11292,"isen":11293,"isations":11294,"arius":11295,"Ġindu":11296,"Ġpin":11297,"asco":11298,"icism":11299,"Ġdying":11300,"ĠTell":11301,"ĠTide":11302,"Ġrejo":11303,"ĠAirc":11304,"ĠSug":11305,"ĠSina":11306,"ĠSaf":11307,"ĠMVP":11308,"ĠBes":11309,"ĠBilly":11310,"Ġgentle":11311,"igious":11312,"ĠHod":11313,"ĠHub":11314,"ĠFord":11315,"ĠFull":11316,"ĠFaul":11317,"raits":11318,"ĠGran":11319,"ĠGiel":11320,"osy":11321,"ĠLt":11322,"andal":11323,"Ġheir":11324,"rix":11325,"ĠEug":11326,"ĠOak":11327,"ĠOcc":11328,"Ġventure":11329,"Ġexecut":11330,"ĠUk":11331,"ĠUy":11332,"oves":11333,"ĠStill":11334,"Ġspo":11335,"Ġspore":11336,"ĠChand":11337,"Ġunless":11338,"ĠVist":11339,"Ġclergy":11340,"orms":11341,"Ġreconc":11342,"Ġscen":11343,"place":11344,"Ġmanage":11345,"ibilities":11346,"Ġenroll":11347,"Ġattorney":11348,"Ġfinest":11349,"rible":11350,"Ġcentered":11351,"Ġremind":11352,"Ġknocked":11353,"Ġdecide":11354,"Ġundergo":11355,"ĠCommer":11356,"Ġcolours":11357,"Ġbuoys":11358,"Ġdozen":11359,"Ġnoise":11360,"Ġsurpass":11361,"Ġ129":11362,"Ġpreserve":11363,"Ġpresbyter":11364,"Ġmonit":11365,"Ġ116":11366,"Ġteammate":11367,"iko":11368,"ĠBrun":11369,"ĠBristol":11370,"ĠIsles":11371,"uedoc":11372,"ĠAustro":11373,"ĠAustria":11374,"Ġshipments":11375,"Ġairfield":11376,"Ġ135":11377,"Ġpassages":11378,"ĠClocks":11379,"ĠAdult":11380,"Ġvariations":11381,"Ġmarch":11382,"aiman":11383,"ĠYorkshire":11384,"Ġprogressed":11385,"Ġdrivers":11386,"Ġantagon":11387,"Ġreplacing":11388,"Ġtraditions":11389,"Ġsimilarities":11390,"Ġroadway":11391,"Ġpoliticians":11392,"ĠTelegraph":11393,"Ġstronger":11394,"Ġsurvival":11395,"ĠElgin":11396,"Ġ1904":11397,"ĠNeolithic":11398,"ĠExper":11399,"Ġbattlefield":11400,"Ġgrows":11401,"ĠActress":11402,"Ġ1857":11403,"ĠBerhtwald":11404,"Ġimprovement":11405,"Ġdevoted":11406,"ĠÃĨ":11407,"Ġtravels":11408,"ĠMcCarthy":11409,"ĠSmall":11410,"Ġlyrical":11411,"Ġtruly":11412,"Ġphysics":11413,"Ġgraduate":11414,"Ġmemorable":11415,"ĠCatholics":11416,"ĠStudio":11417,"Ġflows":11418,"Ġhoping":11419,"Ġcollections":11420,"Ġsalary":11421,"ĠCommandos":11422,"Ġintersects":11423,"Ġessay":11424,"Ġessentially":11425,"Ġduo":11426,"Ġemotions":11427,"ĠAviation":11428,"Ġdynamic":11429,"ĠLarry":11430,"bourne":11431,"Ġpermanently":11432,"ĠDestroy":11433,"ĠBhair":11434,"Ġfragments":11435,"Ġbelonging":11436,"ĠUlster":11437,"Ġmicroscop":11438,"Ġboyfriend":11439,"Ġimagery":11440,"Ġhamlet":11441,"Ġmoist":11442,"Ġreflecting":11443,"Ġoccasional":11444,"Ġstretched":11445,"Ġvertices":11446,"Ġhypothes":11447,"ĠQedarites":11448,"Ġrepeatedly":11449,"Ġlinear":11450,"ĠGanges":11451,"Ġexperimental":11452,"Ġloved":11453,"ĠRonald":11454,"Ġsurrendered":11455,"Ġpuzzle":11456,"Ġurged":11457,"Ġindigo":11458,"Ġconsumption":11459,"ĠRajam":11460,"Ġdiplomatic":11461,"Ġjackrabbit":11462,"ĠLanguedoc":11463,"oplasm":11464,"ĠCPS":11465,"Ġcooperation":11466,"ĠWNO":11467,"ĠNelson":11468,"ĠMcEl":11469,"ĠFreakum":11470,"Ġdeterior":11471,"ĠPerformance":11472,"ĠLoverboy":11473,"Ġgathered":11474,"ĠAuburn":11475,"ĠRuler":11476,"ĠLeicester":11477,"ĠRockefeller":11478,"ĠSinai":11479,"ĠFaulk":11480,"ĠGielgud":11481,"case":11482,"cially":11483,"die":11484,"eu":11485,"found":11486,"lane":11487,"mad":11488,"oided":11489,"saku":11490,"Ġurg":11491,"ĨĴ":11492,"Ġton":11493,"Ġtape":11494,"oni":11495,"reated":11496,"Ġsic":11497,"Ġstern":11498,"Ġsacked":11499,"atch":11500,"ituals":11501,"Ġcy":11502,"Ġcards":11503,"isa":11504,"isons":11505,"anelli":11506,"Ġpill":11507,"Ġpush":11508,"Ġtools":11509,"rov":11510,"Ġmit":11511,"Ġmild":11512,"Ġdressed":11513,"ĠTar":11514,"ĠTow":11515,"Ġrever":11516,"ĠAy":11517,"ĠSout":11518,"entine":11519,"ĠCG":11520,"ĠCret":11521,"omic":11522,"ams":11523,"Ġnavy":11524,"Ġnaked":11525,"ache":11526,"ĠMh":11527,"ĠMole":11528,"ĠBod":11529,"ĠBour":11530,"ĠBelt":11531,"ivan":11532,"irty":11533,"igadier":11534,"ĠHarm":11535,"ĠHoll":11536,"Ġstick":11537,"Ġstability":11538,"Ġstanz":11539,"ĠProp":11540,"ĠPink":11541,"ĠDE":11542,"ĠFast":11543,"Ġalg":11544,"ĠWed":11545,"ĠWant":11546,"ĠWorth":11547,"ĠGri":11548,"ĠGack":11549,"ĠLem":11550,"odox":11551,"ĠEarn":11552,"Ġvig":11553,"illes":11554,"akim":11555,"ante":11556,"ocese":11557,"ĠKo":11558,"ĠâĨĴ":11559,"Ġshallow":11560,"ĠâĢ¦":11561,"season":11562,"ĠStaff":11563,"asted":11564,"Ġspan":11565,"geon":11566,"ounced":11567,"ĠVa":11568,"Ġcompan":11569,"ruption":11570,"Ġadequ":11571,"ĠHein":11572,"ricus":11573,"Ġdisgu":11574,"Ġjunction":11575,"ĠYang":11576,"enson":11577,"ugs":11578,"Ġverses":11579,"Ġsubord":11580,"hesh":11581,"ĠLead":11582,"ĠLeban":11583,"ĠScout":11584,"ĠScots":11585,"Ġexpand":11586,"Ġinvent":11587,"Ġopined":11588,"ylogen":11589,"Ġdirecting":11590,"ĠWhit":11591,"Ġlandmark":11592,"ĠDevin":11593,"Ġpublicly":11594,"Ġconfusion":11595,"Ġdestination":11596,"ĠWeather":11597,"Ġmagic":11598,"Ġaviation":11599,"Ġavoided":11600,"Ġinvolves":11601,"Ġafford":11602,"Ġplanes":11603,"Ġplanets":11604,"Ġgenu":11605,"Ġfriendship":11606,"Ġlimits":11607,"Ġbarrier":11608,"ĠGlass":11609,"Ġnightingale":11610,"Ġfunny":11611,"ĠExpl":11612,"Ġsummar":11613,"Ġsword":11614,"Ġprocessing":11615,"Ġacceptable":11616,"ĠRepresent":11617,"Ġceased":11618,"Ġdraws":11619,"Ġnarrator":11620,"Ġemployment":11621,"boro":11622,"Ġviolation":11623,"ĠMontreal":11624,"Ġgrain":11625,"enesis":11626,"Ġ1848":11627,"Ġdealing":11628,"Ġcomplicated":11629,"Ġscreened":11630,"Ġlinks":11631,"ĠBradman":11632,"Ġdedication":11633,"ĠFormation":11634,"Ġambassador":11635,"ĠRobinson":11636,"ĠMillennium":11637,"ĠLoose":11638,"Ġkicked":11639,"Ġangle":11640,"Ġseemingly":11641,"Ġdisappeared":11642,"ĠJimmy":11643,"Ġremarkable":11644,"Ġmanufacturing":11645,"Ġopinions":11646,"Ġbattleship":11647,"Ġtunnels":11648,"Ġperfectly":11649,"Ġmythology":11650,"Ġsufficiently":11651,"Ġevacuated":11652,"ĠAntonio":11653,"Ġrelegation":11654,"Ġrectangular":11655,"Ġprice":11656,"Ġshifted":11657,"Ġsweep":11658,"Ġaccommodate":11659,"Ġprohibited":11660,"Ġsongwriter":11661,"ĠCultural":11662,"Ġdevotion":11663,"Ġbombardment":11664,"ĠYugoslavia":11665,"Ġpredominantly":11666,"Ġsubstance":11667,"Ġfertil":11668,"Ġdrainage":11669,"Ġisotopes":11670,"ĠMaurice":11671,"Ġamphib":11672,"Ġbombs":11673,"ĠKÅįsaku":11674,"Ġtonnes":11675,"Ġgarnered":11676,"Ġsymptoms":11677,"ĠBarbarian":11678,"ĠShimomura":11679,"Ġsiblings":11680,"ĠNevada":11681,"Ġenormous":11682,"Ġathlete":11683,"ĠAircraft":11684,"ĠFaulkner":11685,"ĠCretaceous":11686,"ĠGacko":11687,"aels":11688,"budo":11689,"gom":11690,"ho":11691,"hous":11692,"ko":11693,"rino":11694,"uen":11695,"zing":11696,"Ġion":11697,"Ġtent":11698,"inisc":11699,"Ġther":11700,"rez":11701,"itious":11702,"Ġcavalry":11703,"enged":11704,"Ġfier":11705,"Ġfires":11706,"Ġbold":11707,"roke":11708,"Ġmg":11709,"Ġdrift":11710,"ourag":11711,"ĠTz":11712,"Ġreper":11713,"ĠSac":11714,"ĠSter":11715,"ĠSite":11716,"ĠSax":11717,"Ġthro":11718,"ĠCN":11719,"ĠCow":11720,"omyc":11721,"Ġlying":11722,"Ġnep":11723,"ĠMend":11724,"ĠMile":11725,"urers":11726,"ĠBoot":11727,"ĠBeth":11728,"ĠBÃ¬nh":11729,"ĠIR":11730,"Ġgender":11731,"irm":11732,"usan":11733,"uskh":11734,"ĠPok":11735,"ĠDays":11736,"ĠFr":11737,"Ġbypass":11738,"ĠWu":11739,"ĠWell":11740,"ĠWisc":11741,"ĠWitchcraft":11742,"ĠGamb":11743,"Ġitem":11744,"ums":11745,"umph":11746,"ĠJar":11747,"avan":11748,"ĠEP":11749,"Ġveloc":11750,"Ġrushed":11751,"abl":11752,"ques":11753,"iph":11754,"apa":11755,"ĠChop":11756,"ounters":11757,"Ġcomprehens":11758,"Ġcomputers":11759,"Ġheritage":11760,"Ġabn":11761,"achment":11762,"Ġdesper":11763,"phone":11764,"Ġeval":11765,"Ġweigh":11766,"onsin":11767,"Ġcolors":11768,"Ġreleasing":11769,"Ġmovies":11770,"rosaurus":11771,"ĠShaw":11772,"Ġpopulated":11773,"Ġ172":11774,"Ġ173":11775,"Ġextends":11776,"ĠBrigades":11777,"ĠConstitution":11778,"Ġimposed":11779,"Ġmilk":11780,"ullivan":11781,"Ġwarn":11782,"Ġwarfare":11783,"Ġadvances":11784,"Ġgoverned":11785,"Ġvaries":11786,"Ġvariable":11787,"Ġhalted":11788,"Ġdemanded":11789,"ĠBrother":11790,"Ġexperts":11791,"ĠXook":11792,"ĠXbox":11793,"Ġrealised":11794,"Ġelectrical":11795,"Ġcompetitive":11796,"Ġterr":11797,"ĠEdge":11798,"Ġlimestone":11799,"Ġboil":11800,"ÃŃn":11801,"ĠSword":11802,"ĠMonth":11803,"Ġ1854":11804,"Ġ1856":11805,"ĠBerg":11806,"ĠImbudo":11807,"Ġimprovements":11808,"ĠMedal":11809,"Ġcuts":11810,"ĠÃį":11811,"Ġmerc":11812,"Ġlearns":11813,"ĠMontfort":11814,"Ġcaliber":11815,"ĠPoet":11816,"Ġcyclones":11817,"ouli":11818,"ĠMahesh":11819,"Ġparticipants":11820,"ĠFilming":11821,"ĠFIT":11822,"ĠPete":11823,"owski":11824,"ĠMalays":11825,"Ġlandscape":11826,"ĠJulian":11827,"Ġwalks":11828,"Ġweakening":11829,"Ġofferings":11830,"ĠTodd":11831,"Ġalternate":11832,"Ġdefender":11833,"ĠDefence":11834,"Ġgrasses":11835,"Ġsacrif":11836,"ĠSenate":11837,"Ġspotted":11838,"Ġsensitive":11839,"aturally":11840,"Ġcollaborated":11841,"ĠGarden":11842,"ĠLiberal":11843,"ĠGabri":11844,"Ġpetition":11845,"ĠRaymond":11846,"Ġoptions":11847,"Ġcabinet":11848,"Ġhighlighted":11849,"Ġimmigrants":11850,"Ġlicens":11851,"ĠNapole":11852,"ĠOfficial":11853,"Ġchallenges":11854,"ĠTechnology":11855,"urrently":11856,"ĠNicholas":11857,"ĠCombat":11858,"Ġsurprised":11859,"Ġhelicopter":11860,"Ġrelieved":11861,"ĠGladstone":11862,"Ġvulner":11863,"ĠPfaster":11864,"Ġsupreme":11865,"Ġdeliberately":11866,"Ġtherapy":11867,"ĠBeginning":11868,"Ġhygromet":11869,"Ġliquid":11870,"ĠWikiped":11871,"Ġdisbanded":11872,"ĠPakistan":11873,"ĠDwight":11874,"Æ°Æ¡":11875,"Ġacoustic":11876,"Ġinducted":11877,"Ġdecommissioned":11878,"ĠUygh":11879,"ĠEarnest":11880,"uskhuri":11881,"ĠWisconsin":11882,"Æ°Æ¡ng":11883,"bits":11884,"even":11885,"say":11886,"Ġtawny":11887,"Ġoct":11888,"orf":11889,"Ġcats":11890,"Ġcattle":11891,"enburg":11892,"Ġfart":11893,"Ġbol":11894,"Ġinver":11895,"aliation":11896,"inge":11897,"Ġpian":11898,"Ġpaying":11899,"Ġmud":11900,"Ġmentions":11901,"Ġdawn":11902,"Ġdancing":11903,"ĠTun":11904,"ĠTotal":11905,"ĠAL":11906,"ĠAN":11907,"ĠAction":11908,"ĠSey":11909,"ĠSMS":11910,"sts":11911,"Ġlig":11912,"Ġlie":11913,"Ġnic":11914,"ĠMP":11915,"ĠMembers":11916,"Ġgran":11917,"Ġgusts":11918,"etheless":11919,"idance":11920,"Ġforb":11921,"oting":11922,"Ġaside":11923,"ĠHi":11924,"usa":11925,"Ġstall":11926,"ayan":11927,"ĠPil":11928,"ĠDian":11929,"Ġisn":11930,"ĠFund":11931,"ĠWas":11932,"ĠWard":11933,"ĠWald":11934,"ĠGross":11935,"oso":11936,"ĠLin":11937,"ĠLear":11938,"ĠLoren":11939,"ĠNa":11940,"ĠNu":11941,"ĠNik":11942,"ĠNuskhuri":11943,"umble":11944,"ĠEc":11945,"Ġdeer":11946,"Ġdealt":11947,"Ġrush":11948,"Ġrituals":11949,"Ġchanc":11950,"ĠKub":11951,"ĠKatherine":11952,"Ġshall":11953,"ĠStakes":11954,"ĠStyle":11955,"ĠStrapping":11956,"Ġyd":11957,"ĠVishn":11958,"Ġbutt":11959,"sole":11960,"Ġintact":11961,"Ġclust":11962,"assed":11963,"Ġresur":11964,"Ġperception":11965,"lando":11966,"izer":11967,"Ġplayable":11968,"Ġaftermath":11969,"iban":11970,"Ġenabled":11971,"ressions":11972,"angle":11973,"Ġattending":11974,"Ġoutstanding":11975,"Ġpret":11976,"Ġsecular":11977,"Ġreminisc":11978,"Ġknee":11979,"icken":11980,"ĠEnergy":11981,"Ġspeculated":11982,"Ġaccus":11983,"Ġinterc":11984,"ĠLevel":11985,"Ġ109":11986,"Ġentert":11987,"Ġ1200":11988,"Ġtransformed":11989,"Ġaddressed":11990,"Ġdescent":11991,"Ġinvaded":11992,"Ġmetric":11993,"Ġministers":11994,"Ġextant":11995,"ashire":11996,"ĠSpe":11997,"Ġadventures":11998,"Ġheading":11999,"ĠAdri":12000,"Ġguerr":12001,"Ġguidance":12002,"Ġpromise":12003,"ĠGuinness":12004,"ĠParanth":12005,"ĠOrlando":12006,"ĠTrinity":12007,"beat":12008,"Ġtempo":12009,"Ġeld":12010,"ĠAmyl":12011,"Ġcommunist":12012,"Ġmyel":12013,"Ġcompeted":12014,"Ġarrives":12015,"escope":12016,"Ġskill":12017,"Ġaffect":12018,"Ġpressed":12019,"Ġdivines":12020,"ĠBlacks":12021,"ĠBlackie":12022,"Ġcasting":12023,"ĠHarris":12024,"Ġlawyer":12025,"Ġdeclaring":12026,"Ġ1894":12027,"Ġ1898":12028,"Ġconnects":12029,"Ġcircular":12030,"ĠMoro":12031,"Ġcommentary":12032,"Ġ1851":12033,"Ġrecognize":12034,"Ġestimate":12035,"ĠBergen":12036,"Ġ1881":12037,"Ġfloods":12038,"ĠMontgom":12039,"Ġuncle":12040,"Ġ1832":12041,"Ġrape":12042,"ĠNote":12043,"ĠVargas":12044,"Ġapartment":12045,"ĠGreatest":12046,"Ġcasem":12047,"ĠTerry":12048,"Ġconcerning":12049,"ĠRhode":12050,"Ġexamined":12051,"Ġflowers":12052,"Ġlabour":12053,"ĠHumpty":12054,"ĠLoch":12055,"umbered":12056,"umberland":12057,"ĠPitts":12058,"Ġcrowds":12059,"ĠFerr":12060,"ĠAttack":12061,"ĠReviews":12062,"Ġqualifying":12063,"Ġportrayal":12064,"ĠColonies":12065,"Ġexhibited":12066,"Ġdissipating":12067,"Ġthirteen":12068,"ĠRetrieved":12069,"Ġcomprising":12070,"ĠApart":12071,"ĠDerby":12072,"ĠNazaire":12073,"ĠDarwin":12074,"Ġ737":12075,"ĠGabbar":12076,"ĠMotor":12077,"ĠMariah":12078,"ĠWallace":12079,"Ġaltarpiece":12080,"ÅĤaw":12081,"Ġsubtropical":12082,"ĠGanganelli":12083,"ĠBrazilian":12084,"ĠKatia":12085,"ĠPuerto":12086,"Ġvolunteers":12087,"Ġblend":12088,"ĠPersonal":12089,"Ġrecreational":12090,"ĠPAVN":12091,"ĠLancashire":12092,"Ġpreceding":12093,"Ġexhaust":12094,"Ġdiverse":12095,"Ġinterpretation":12096,"Ġoverwhelming":12097,"Ġmerchant":12098,"Ġreservoirs":12099,"Ġconspir":12100,"Ġcategories":12101,"ĠTaxonomy":12102,"Ġrebellion":12103,"Ġinternationally":12104,"expected":12105,"ĠÂµm":12106,"ĠBracknell":12107,"Ġmysterious":12108,"ĠGuinea":12109,"ĠRajamouli":12110,"ĠMcElroy":12111,"ĠMhalsa":12112,"ĠÃįmar":12113,"Ġhygrometricus":12114,"ĠParanthodon":12115,"ĠMontgomery":12116,"bach":12117,"ked":12118,"lide":12119,"mem":12120,"mers":12121,"pack":12122,"pike":12123,"taker":12124,"uber":12125,"wa":12126,"Äĥ":12127,"ĠØ":12128,"Ġarose":12129,"Ġthesis":12130,"erb":12131,"Ġwished":12132,"Ġwonder":12133,"atters":12134,"Ġcu":12135,"Ġcel":12136,"Ġcakes":12137,"Ġfest":12138,"esque":12139,"Ġbin":12140,"Ġbron":12141,"aland":12142,"Ġpig":12143,"Ġmos":12144,"Ġdad":12145,"Ġhockey":12146,"ĠTat":12147,"ĠTalk":12148,"Ġreh":12149,"Ġreverse":12150,"ĠSit":12151,"ĠSNL":12152,"ĠSullivan":12153,"entin":12154,"iland":12155,"ĠCadmium":12156,"eling":12157,"Ġnose":12158,"ĠMail":12159,"ĠBry":12160,"ĠBased":12161,"olar":12162,"olph":12163,"igon":12164,"tery":12165,"tering":12166,"ĠHosp":12167,"usade":12168,"Ġstalk":12169,"ĠPel":12170,"ĠPra":12171,"ĠPand":12172,"ĠPast":12173,"ĠRand":12174,"ĠDoc":12175,"ĠDÃŃ":12176,"ĠDawn":12177,"ĠFather":12178,"Ġalignment":12179,"ĠWave":12180,"Ġconform":12181,"Ġconven":12182,"ĠGene":12183,"ĠNEA":12184,"ctic":12185,"istical":12186,"odont":12187,"ĠdeGrom":12188,"pts":12189,"ĠKan":12190,"ĠKal":12191,"quis":12192,"quest":12193,"ovil":12194,"ovac":12195,"ĠStart":12196,"Ġleagues":12197,"apter":12198,"apolis":12199,"Ġunre":12200,"Ġunexpected":12201,"Ġincred":12202,"Ġdislik":12203,"izong":12204,"Ġjur":12205,"Ġpartners":12206,"Ġages":12207,"overed":12208,"Ġouts":12209,"intage":12210,"Ġconservative":12211,"ĠArcher":12212,"Ġasserted":12213,"ĠSean":12214,"ĠLein":12215,"Ġcoat":12216,"Ġcoaster":12217,"Ġindirect":12218,"Ġ103":12219,"Ġtransits":12220,"Ġinvitation":12221,"Ġ152":12222,"Ġmetaph":12223,"Ġrepet":12224,"Ġextr":12225,"Ġimpressive":12226,"Ġinsisted":12227,"ĠBloom":12228,"Ġthoughts":12229,"ĠSpir":12230,"Ġadvent":12231,"Ġbrings":12232,"ĠForb":12233,"Ġbatting":12234,"Ġprotesters":12235,"Ġmarched":12236,"racted":12237,"Ġslave":12238,"Ġparad":12239,"Ġbread":12240,"Ġorganic":12241,"ĠTherefore":12242,"Ġdebt":12243,"Ġrealistic":12244,"ĠBaron":12245,"Ġpositioned":12246,"ĠParker":12247,"Ġstatue":12248,"Ġinvolve":12249,"Ġwanting":12250,"ĠDavies":12251,"Ġsituations":12252,"Ġordinary":12253,"Ġgenres":12254,"Ġlights":12255,"Ġradius":12256,"Ġdestroying":12257,"Ġtourists":12258,"Ġ1891":12259,"Ġmounts":12260,"ĠMonten":12261,"ommun":12262,"Ġcommerce":12263,"Ġcommercially":12264,"ĠMedieval":12265,"Ġ1882":12266,"Ġcease":12267,"Ġdrawings":12268,"Ġzones":12269,"Ġhosts":12270,"Ġ1865":12271,"ĠCrim":12272,"ĠÃħ":12273,"Ġresponses":12274,"ĠQuinn":12275,"Ġhonours":12276,"Ġinterviews":12277,"Ġinterviewed":12278,"Ġreactor":12279,"Ġeducational":12280,"ĠArtist":12281,"Ġoccupy":12282,"ragon":12283,"backs":12284,"ĠTerrorist":12285,"Ġensemble":12286,"Ġscripts":12287,"Ġcounteratt":12288,"Ġloop":12289,"Ġprinciple":12290,"Ġlayers":12291,"Ġgraphic":12292,"Ġpaths":12293,"Ġconfirm":12294,"Ġangry":12295,"Ġjumping":12296,"Ġemotion":12297,"Ġelevated":12298,"Ġeleventh":12299,"Ġfarming":12300,"Ġtorpedoes":12301,"Ġratio":12302,"lamation":12303,"Ġweakness":12304,"Ġfears":12305,"Ġscholarship":12306,"ĠLlosa":12307,"ĠDenmark":12308,"Ġhonorary":12309,"Ġpulp":12310,"Ġaccomplished":12311,"Ġeliminate":12312,"Ġplatforms":12313,"Ġwitnesses":12314,"Ġdecrease":12315,"Ġtravelling":12316,"ĠStewie":12317,"ĠYeovil":12318,"Ġinstrumental":12319,"Ġrevolutionary":12320,"ĠChronicle":12321,"ĠElectronic":12322,"Ġorchestra":12323,"Ġteachings":12324,"ĠGibson":12325,"Ġanswer":12326,"Ġastronomers":12327,"Ġframework":12328,"Ġdinosaurs":12329,"Ġloyal":12330,"ĠCobra":12331,"ĠMcLaren":12332,"Ġacknowledged":12333,"Ġreversed":12334,"Ġsupernatural":12335,"ĠJenkins":12336,"Ġbattlecruisers":12337,"Ġinhabited":12338,"Ġcoffee":12339,"Ġsemifinals":12340,"Ġpione":12341,"Ġadvertisements":12342,"ĠFifth":12343,"ĠBattery":12344,"Ġredesign":12345,"Ġhampered":12346,"ĠAlgernon":12347,"ipelago":12348,"ĠRafael":12349,"ĠFastra":12350,"Ġvelocity":12351,"ĠDÃŃaz":12352,"40":12353,"BO":12354,"ele":12355,"fl":12356,"gs":12357,"hand":12358,"iÃ¨":12359,"jib":12360,"vy":12361,"Ã´":12362,"herent":12363,"Ġaided":12364,"inand":12365,"onation":12366,"onso":12367,"Ġol":12368,"Ġwinners":12369,"Ġcro":12370,"Ġcable":12371,"Ġfed":12372,"Ġfab":12373,"Ġfiled":12374,"arr":12375,"Ġbath":12376,"Ġboss":12377,"Ġbills":12378,"Ġpuma":12379,"ĠTag":12380,"ĠTang":12381,"ĠTob":12382,"ĠTai":12383,"ĠTuck":12384,"ĠAw":12385,"ĠAx":12386,"ĠAff":12387,"ĠSic":12388,"ĠSour":12389,"Ġthrown":12390,"stown":12391,"stapp":12392,"Ġeagle":12393,"Ġwaste":12394,"ĠMint":12395,"ĠMaid":12396,"ĠMaj":12397,"uru":12398,"Ġgam":12399,"Ġgospel":12400,"idated":12401,"idia":12402,"igible":12403,"Ġasc":12404,"ĠHend":12405,"ĠHang":12406,"Ġstaged":12407,"Ġstaying":12408,"Ġstorage":12409,"ĠPa":12410,"ĠPesh":12411,"ĠRal":12412,"ĠRut":12413,"ĠRub":12414,"ĠRNA":12415,"thi":12416,"emark":12417,"Ġwhatever":12418,"Ġalco":12419,"ĠWol":12420,"Ġconceived":12421,"Ġconsole":12422,"riors":12423,"ĠInside":12424,"Ġramp":12425,"Ġchord":12426,"abad":12427,"berger":12428,"Ġexem":12429,"Ġexterior":12430,"ĠKaiman":12431,"Ġspar":12432,"Ġspell":12433,"Ġspelling":12434,"ostere":12435,"ĠChu":12436,"Ġuncon":12437,"ĠVI":12438,"ĠVe":12439,"ĠVo":12440,"ĠVoyage":12441,"Ġinteg":12442,"oulder":12443,"Ġherb":12444,"Ġrout":12445,"ĠThomp":12446,"rice":12447,"lude":12448,"Ġdesired":12449,"Ġenact":12450,"keeper":12451,"angel":12452,"Ġoutd":12453,"Ġcentres":12454,"iousness":12455,"issart":12456,"Ġfeared":12457,"ailing":12458,"Ġtrunk":12459,"othic":12460,"Ġrelax":12461,"Ġmeat":12462,"Ġsubd":12463,"Ġsuburb":12464,"ĠNewport":12465,"Ġcoined":12466,"rosaur":12467,"ucks":12468,"Ġfounding":12469,"Ġblamed":12470,"Ġdeputy":12471,"Ġstudios":12472,"Ġ156":12473,"Ġopens":12474,"ĠAftermath":12475,"uchi":12476,"Ġdeveloper":12477,"Ġdevelopments":12478,"Ġconclus":12479,"ĠIndies":12480,"Ġdistort":12481,"Ġprovision":12482,"Ġsixty":12483,"Ġadvocated":12484,"Ġelephant":12485,"Ġgoverning":12486,"Ġannoy":12487,"ĠNorthumberland":12488,"mede":12489,"ĠJanet":12490,"ĠBeing":12491,"Ġlasting":12492,"Ġconfron":12493,"Ġconfused":12494,"arnation":12495,"plex":12496,"Ġprogression":12497,"incl":12498,"Ġhandle":12499,"Ġmarkets":12500,"Ġdebated":12501,"ĠTrad":12502,"Ġexciting":12503,"ĠPeron":12504,"Ġtwins":12505,"Ġelite":12506,"ĠEdition":12507,"Ġaffecting":12508,"Ġglac":12509,"Ġradar":12510,"Ġradical":12511,"Ġbarrel":12512,"umping":12513,"ĠExeter":12514,"ĠExecutive":12515,"ĠExped":12516,"Ġencourag":12517,"Ġtroop":12518,"Ġdiscovers":12519,"Ġdeclaration":12520,"Ġvillain":12521,"Ġswitch":12522,"Ġ1896":12523,"Ġentirety":12524,"bridge":12525,"Ġcampaigns":12526,"Ġcommentators":12527,"Ġidentical":12528,"Ġagrees":12529,"ĠBerk":12530,"Ġlacks":12531,"Ġcorrid":12532,"ĠMedical":12533,"Ġrounded":12534,"castle":12535,"ĠBoat":12536,"Ġ1862":12537,"Ġcostumes":12538,"ĠMaryang":12539,"Ġachievement":12540,"Ġpersisted":12541,"ĠFez":12542,"Ġpainter":12543,"Ġgraduated":12544,"Ġmemoir":12545,"ĠArtillery":12546,"Ġparticipation":12547,"ships":12548,"ratch":12549,"Ġapplications":12550,"Ġsatir":12551,"Ġfrequency":12552,"ĠVerstapp":12553,"Ġdeeply":12554,"Ġriff":12555,"Ġlogs":12556,"Ġbombers":12557,"Ġfocuses":12558,"ĠJamie":12559,"Ġjudo":12560,"Ġmurd":12561,"ĠBobby":12562,"ĠGoat":12563,"Äģdv":12564,"Ġvocalist":12565,"Ġathletics":12566,"Ġdynam":12567,"ĠAnnals":12568,"Ġextraord":12569,"Ġmessages":12570,"Ġprinting":12571,"ĠPopM":12572,"Ġexhibit":12573,"Ġemphasized":12574,"Ġfungi":12575,"Ġbelonged":12576,"Ġtargeted":12577,"Ġrestaurants":12578,"ĠLiberty":12579,"ĠAthletics":12580,"ĠFreedom":12581,"ĠBruins":12582,"Ġsailors":12583,"ĠShaolin":12584,"Ġproposals":12585,"boards":12586,"Ġplumage":12587,"ĠIntellig":12588,"Ġsubmarines":12589,"Ġcorresponding":12590,"Ġmutual":12591,"Ġfairly":12592,"Ġenlisted":12593,"Ġawareness":12594,"Ġdrugs":12595,"ĠPuppet":12596,"Ġsymmet":12597,"ĠCampbeltown":12598,"Ġgallery":12599,"ĠDurham":12600,"Ġskelet":12601,"Ġgathering":12602,"ĠWolfpack":12603,"Ġanthrop":12604,"Ġcensus":12605,"Ġabsolut":12606,"Ġpatrols":12607,"Ġborrowed":12608,"ught":12609,"Ġgarden":12610,"Ġborders":12611,"Ġrecruited":12612,"Ġfrigates":12613,"ĠBehind":12614,"ĠMagdalen":12615,"Ġbinding":12616,"Ġrendition":12617,"ĠPanzer":12618,"Ġefficient":12619,"ĠPrivate":12620,"Ġaggregate":12621,"Ġenthusi":12622,"Ġdispatched":12623,"ĠMcNichol":12624,"ĠJohann":12625,"Ġadministered":12626,"Ġbonus":12627,"ĠAdministration":12628,"ĠGwend":12629,"Ġunstable":12630,"Ġalphabet":12631,"Ġcameras":12632,"ĠFerdinand":12633,"Ġnephew":12634,"Ġcomprehensive":12635,"ĠWikipedia":12636,"Ġreminiscent":12637,"ĠAmylostere":12638,"ĠThompson":12639,"ĠVerstappen":12640,"IV":12641,"OS":12642,"SU":12643,"cont":12644,"iu":12645,"lass":12646,"lides":12647,"mo":12648,"oons":12649,"vor":12650,"Ãº":12651,"Ġãĥ":12652,"Ġãģ":12653,"ĠãĤ":12654,"ĠËĪ":12655,"Ġtennis":12656,"Ġsle":12657,"Ġsink":12658,"Ġsaving":12659,"Ġoribi":12660,"Ġcod":12661,"Ġcock":12662,"Ġcorpor":12663,"isive":12664,"Ġbush":12665,"Ġpose":12666,"icial":12667,"Ġdign":12668,"Ġharsh":12669,"Ġhurd":12670,"leans":12671,"ĠTrou":12672,"ĠTyp":12673,"ĠTimb":12674,"Ġreorgan":12675,"ĠAway":12676,"ĠSag":12677,"ĠSri":12678,"ĠSport":12679,"ĠSEC":12680,"Ġthread":12681,"Ġthorough":12682,"ĠClear":12683,"ĠCemetery":12684,"Ġlib":12685,"Ġnas":12686,"Ġnice":12687,"Ġnaturally":12688,"acements":12689,"ĠMI":12690,"ĠMom":12691,"ĠMak":12692,"ĠMap":12693,"ĠBach":12694,"ĠITV":12695,"etics":12696,"idal":12697,"Ġforget":12698,"ighed":12699,"igger":12700,"ĠHold":12701,"ĠHakim":12702,"ushes":12703,"Ġstress":12704,"Ġstingray":12705,"iths":12706,"ayana":12707,"ĠPas":12708,"ĠRan":12709,"ĠRook":12710,"ĠRuth":12711,"emi":12712,"ĠFu":12713,"ĠFle":12714,"ulator":12715,"ĠWells":12716,"rained":12717,"ĠGa":12718,"ĠGuth":12719,"ĠGao":12720,"ĠLat":12721,"ĠNF":12722,"estock":12723,"agh":12724,"oderm":12725,"avian":12726,"ĠEch":12727,"ĠECU":12728,"ĠOri":12729,"Ġproxim":12730,"Ġchances":12731,"Ġoral":12732,"Ġexile":12733,"ĠKr":12734,"ĠKur":12735,"quet":12736,"Ġâĺ":12737,"Ġspear":12738,"ĠChau":12739,"Ġincons":12740,"uble":12741,"Ġabst":12742,"Ġrecount":12743,"ĠThan":12744,"Ġscope":12745,"Ġscores":12746,"Ġdisabled":12747,"Ġmanifest":12748,"Ġmaneu":12749,"Ġovercome":12750,"phan":12751,"ĠUnit":12752,"Ġalliance":12753,"ĠAny":12754,"Ġpoetic":12755,"ailand":12756,"Ġdecoration":12757,"othy":12758,"Ġcanons":12759,"Ġnearest":12760,"Ġflav":12761,"Ġflown":12762,"Ġassum":12763,"Ġintervention":12764,"ĠLeo":12765,"ĠJoan":12766,"Ġdoors":12767,"Ġ107":12768,"Ġblind":12769,"ĠSche":12770,"airn":12771,"Ġmining":12772,"Ġreporter":12773,"Ġdiff":12774,"ĠIndu":12775,"aux":12776,"Ġpolar":12777,"enne":12778,"Ġphylogen":12779,"erves":12780,"ĠClay":12781,"ĠClair":12782,"ĠCommodore":12783,"ĠEuro":12784,"ĠNorthwest":12785,"Ġmarg":12786,"ĠParachute":12787,"Ġconfidence":12788,"Ġrefuses":12789,"Ġslip":12790,"ĠAndr":12791,"Ġbreeds":12792,"Ġexplored":12793,"Ġexplaining":12794,"Ġhandling":12795,"Ġsuggestion":12796,"Ġdebris":12797,"Ġtotally":12798,"Ġdelight":12799,"Ġcrusad":12800,"Ġlessons":12801,"Ġstatues":12802,"Ġaffair":12803,"Ġeighteen":12804,"adesh":12805,"Ġerror":12806,"ĠRegiments":12807,"Ġintroduces":12808,"Ġblacks":12809,"Ġhumanity":12810,"Ġencounters":12811,"Ġmixing":12812,"Ġswit":12813,"Ġ1893":12814,"Ġ1899":12815,"Ġcoastline":12816,"ĠSecurity":12817,"ĠCareer":12818,"Ġconnect":12819,"ĠMoritz":12820,"Ġknows":12821,"Ġsexually":12822,"ĠOthers":12823,"Ġestimates":12824,"Ġarmoured":12825,"Ġarguments":12826,"Ġacceptance":12827,"ealous":12828,"Ġcontracts":12829,"Ġsuffer":12830,"itaire":12831,"Ġ1874":12832,"ĠGrant":12833,"Ġwoodland":12834,"Ġsubjected":12835,"ĠSchm":12836,"ĠUnderneath":12837,"ĠSyria":12838,"unta":12839,"Ġcontempor":12840,"Ġguitarist":12841,"ĠFormer":12842,"Ġprincess":12843,"Ġfocusing":12844,"ĠTwins":12845,"Ġultimate":12846,"ĠSoviets":12847,"Ġsymbols":12848,"ĠBrethren":12849,"Ġholes":12850,"Ġdisappear":12851,"Ġdemonstration":12852,"ĠEngineers":12853,"ĠTrip":12854,"Ġoxide":12855,"ĠJoshua":12856,"ĠCapital":12857,"ĠMDOT":12858,"ĠBuen":12859,"Ġfunctional":12860,"Ġromance":12861,"Ġattendance":12862,"Ġintelligent":12863,"Ġlabeled":12864,"ĠGreater":12865,"ĠIndustrial":12866,"Ġfoxes":12867,"ĠCarlos":12868,"Ġecl":12869,"ĠClassic":12870,"Ġexpeditions":12871,"Ġmistaken":12872,"ĠMurphy":12873,"ĠArik":12874,"ĠMuham":12875,"ĠEllis":12876,"ĠSusque":12877,"Ġmigration":12878,"Ġ978":12879,"ĠUNES":12880,"ĠJudith":12881,"ĠIngram":12882,"Ġwitnessed":12883,"ĠRowley":12884,"avery":12885,"Ġreconstruct":12886,"Ġrifles":12887,"Ġexplosive":12888,"ĠCopia":12889,"ĠSavage":12890,"Ġruins":12891,"Ġexercise":12892,"ĠMarshal":12893,"Ġsynthesis":12894,"ĠAldean":12895,"Ġsamples":12896,"Ġculm":12897,"ĠCruiser":12898,"Ġdeposits":12899,"Ġimplemented":12900,"ĠÅĮ":12901,"changed":12902,"Ġoverwhelmed":12903,"Ġabundant":12904,"Ġabundance":12905,"Ġobstacles":12906,"Ġlisteners":12907,"ĠLithuan":12908,"Ġturbines":12909,"Ġnickname":12910,"Ġfantasy":12911,"ĠUniversal":12912,"Ġrendered":12913,"Ġplayoffs":12914,"ĠDumpty":12915,"Ġprompting":12916,"Ġhence":12917,"ĠDiamond":12918,"tzow":12919,"ĠImportance":12920,"Ġsanctuary":12921,"ĠLÃ¼tzow":12922,"Ġdescriptions":12923,"ĠCurtis":12924,"ĠIAAF":12925,"ĠHairan":12926,"ĠChanology":12927,"Ġincomplete":12928,"ĠVistara":12929,"ĠBhairava":12930,"ĠTzu":12931,"Ġreperto":12932,"ĠSaxon":12933,"ĠNapoleon":12934,"ĠLeinster":12935,"ĠGuthrie":12936,"ĠGaozong":12937,"Ġproximity":12938,"ĠUNESCO":12939,"ZAC":12940,"bu":12941,"cle":12942,"cut":12943,"cos":12944,"cock":12945,"cope":12946,"music":12947,"rut":12948,"sville":12949,"uania":12950,"Äį":12951,"ĠÐ":12952,"Ġts":12953,"Ġtag":12954,"Ġtong":12955,"Ġtune":12956,"Ġtales":12957,"inich":12958,"inating":12959,"reation":12960,"orith":12961,"orrh":12962,"itars":12963,"Ġcyl":12964,"Ġcooking":12965,"anus":12966,"Ġine":12967,"ingham":12968,"asant":12969,"Ġmere":12970,"Ġmaps":12971,"ĠmRNA":12972,"Ġdug":12973,"Ġdull":12974,"Ġdining":12975,"Ġdimin":12976,"Ġhide":12977,"oub":12978,"ĠAS":12979,"ĠAren":12980,"ĠST":12981,"ĠSud":12982,"ĠSang":12983,"ĠSuez":12984,"ilogy":12985,"ĠCall":12986,"elope":12987,"omal":12988,"adir":12989,"aco":12990,"ĠMut":12991,"ĠMets":12992,"ece":12993,"Ġgram":12994,"ivorous":12995,"ĠHand":12996,"ĠHave":12997,"ĠPresent":12998,"ĠRud":12999,"ĠRound":13000,"ĠRush":13001,"ĠDry":13002,"ĠFal":13003,"ĠFil":13004,"ĠFig":13005,"ĠFlet":13006,"ĠFisher":13007,"ĠFlying":13008,"ĠFountain":13009,"osomes":13010,"ĠLiam":13011,"ĠNOK":13012,"andin":13013,"Ġanger":13014,"ĠEU":13015,"ĠEaster":13016,"ĠOk":13017,"ĠOke":13018,"ĠOjib":13019,"opy":13020,"opol":13021,"ĠInv":13022,"ĠIngr":13023,"Ġseed":13024,"Ġseated":13025,"ardi":13026,"Ġchann":13027,"Ġorange":13028,"aba":13029,"Ġexternal":13030,"ĠKu":13031,"ĠKaw":13032,"ĠkW":13033,"oved":13034,"ĠStones":13035,"Ġspor":13036,"Ġspoken":13037,"apy":13038,"Ġwheel":13039,"Ġcliff":13040,"assy":13041,"Ġrecip":13042,"Ġroot":13043,"ĠThailand":13044,"ĠAlph":13045,"itional":13046,"Ġdischar":13047,"acht":13048,"ĠYoko":13049,"Ġupr":13050,"ĠAnim":13051,"ĠAnsel":13052,"Ġremake":13053,"Ġdeciding":13054,"ugg":13055,"ĠMarily":13056,"Ġrelied":13057,"obee":13058,"Ġretreated":13059,"ĠNewfound":13060,"insky":13061,"Ġ104":13062,"uclear":13063,"veloped":13064,"tona":13065,"Ġexpanding":13066,"Ġtransform":13067,"Ġtransmitted":13068,"Ġemig":13069,"full":13070,"Ġmonster":13071,"ikh":13072,"Ġinsult":13073,"ĠGerald":13074,"Ã©l":13075,"ĠWarrior":13076,"ĠCarroll":13077,"Ġpassenger":13078,"Ġdamages":13079,"Ġgrace":13080,"Ġeditions":13081,"Ġpointing":13082,"ĠDeal":13083,"Ġdetect":13084,"ĠEuropium":13085,"Ġportraits":13086,"echobee":13087,"Ġslaves":13088,"opsis":13089,"Ġorganisations":13090,"Ġexplan":13091,"ĠFlair":13092,"ĠOrleans":13093,"ĠPeriod":13094,"Ġelectro":13095,"Ġeveryday":13096,"Ġcurve":13097,"ĠGeneration":13098,"Ġcompeting":13099,"Ġlesser":13100,"arma":13101,"Ġjoins":13102,"Ġhumanitarian":13103,"ĠPalmer":13104,"Ġboom":13105,"Ġ1892":13106,"Ġlikewise":13107,"ĠMonument":13108,"ĠMonica":13109,"Ġassociate":13110,"Ġ1859":13111,"Ġaveraged":13112,"Ġimproving":13113,"Ġseparately":13114,"Ġspecialized":13115,"Ġmaternal":13116,"alties":13117,"Ġceiling":13118,"ĠMarket":13119,"ĠHelen":13120,"Ġdonations":13121,"ĠNotable":13122,"Ġbreakdown":13123,"Ġstopping":13124,"Ġcrucial":13125,"ĠMetall":13126,"Ġpreventing":13127,"ĠJerry":13128,"ĠTurkey":13129,"ĠArchbishop":13130,"Ġconsiderably":13131,"Ġkinds":13132,"Ġdigit":13133,"ĠRobyn":13134,"ĠOutside":13135,"Ġlifted":13136,"Ġintersections":13137,"Ġchallenged":13138,"Ġsuspected":13139,"ĠDamage":13140,"ĠJulio":13141,"ĠKahn":13142,"ĠConfession":13143,"ĠDoof":13144,"ĠDoctor":13145,"ĠHalf":13146,"Ġdrafted":13147,"ĠFerry":13148,"ĠJosh":13149,"Ġjournalists":13150,"ĠConstantin":13151,"Ġremixes":13152,"Ġminerals":13153,"ĠSubsequently":13154,"ĠKarl":13155,"Ġstrikeouts":13156,"Ġimagination":13157,"ĠBasement":13158,"ĠAdventures":13159,"Ġreflects":13160,"Ġcrafts":13161,"ĠCuba":13162,"Ġsummary":13163,"ĠBiography":13164,"Ġdistinguish":13165,"Ġsegments":13166,"Ġinstrumentation":13167,"ĠDomnall":13168,"ĠSaigon":13169,"Ġstreams":13170,"Ġconsequence":13171,"Ġbesie":13172,"ĠCruise":13173,"ĠOfficer":13174,"ĠHoriz":13175,"ĠUrban":13176,"Ġpersuaded":13177,"ĠLithuania":13178,"Ġmammal":13179,"ĠBuddhist":13180,"ĠRebbie":13181,"Ġprinciples":13182,"isphere":13183,"ĠRapids":13184,"ĠObserver":13185,"Ġbarely":13186,"Ġdispersed":13187,"ĠCadets":13188,"Ġnineteenth":13189,"Ġphenomenon":13190,"Ġexcellent":13191,"Ġfavourite":13192,"tymology":13193,"Ġhorizont":13194,"Ġdiscontin":13195,"Ġhiatus":13196,"ĠANZAC":13197,"ĠLorenzo":13198,"ĠStarting":13199,"ĠCrimson":13200,"ĠPeshkin":13201,"ĠRalph":13202,"ĠKaimanawa":13203,"ĠExpedition":13204,"ÄģdvÄģda":13205,"Ġâĺī":13206,"ĠSusqueh":13207,"ĠOkeechobee":13208,"ĠIngrid":13209,"ĠMarilyn":13210,"ĠNewfoundland":13211,"aic":13212,"aos":13213,"auc":13214,"aude":13215,"bone":13216,"bled":13217,"ggy":13218,"jin":13219,"lore":13220,"mund":13221,"nance":13222,"run":13223,"Ã«":13224,"ÅĦ":13225,"Ġé":13226,"Ġties":13227,"Ġtends":13228,"inter":13229,"eria":13230,"rection":13231,"oria":13232,"itate":13233,"itall":13234,"itating":13235,"enz":13236,"Ġfing":13237,"Ġfisher":13238,"Ġinhib":13239,"Ġpir":13240,"Ġtoy":13241,"rost":13242,"icing":13243,"Ġmad":13244,"Ġmold":13245,"Ġdanc":13246,"Ġdread":13247,"Ġdads":13248,"ĠTa":13249,"ĠAires":13250,"ĠSincl":13251,"ĠCann":13252,"ĠClement":13253,"ĠChemical":13254,"Ġnaut":13255,"acrit":13256,"ĠIl":13257,"Ġgains":13258,"olly":13259,"ĠHond":13260,"ĠHern":13261,"ĠHutch":13262,"Ġstump":13263,"ayed":13264,"ĠPD":13265,"ĠPion":13266,"ĠPear":13267,"ĠPomp":13268,"ĠRey":13269,"ĠROK":13270,"thodox":13271,"ĠWang":13272,"ĠGand":13273,"ĠGry":13274,"ĠGothic":13275,"osely":13276,"ĠLim":13277,"agger":13278,"ĠEps":13279,"Ġprobe":13280,"Ġproof":13281,"rescent":13282,"Ġvent":13283,"ĠInformation":13284,"Ġchase":13285,"about":13286,"ĠKet":13287,"ĠKod":13288,"ĠKend":13289,"Ġkiss":13290,"ĠStansfield":13291,"astian":13292,"Ġleather":13293,"ipality":13294,"ellor":13295,"ellers":13296,"ĠChile":13297,"Ġunl":13298,"Ġunrel":13299,"ĠVisc":13300,"Ġcomparing":13301,"Ġclad":13302,"Ġresolved":13303,"Ġrecapt":13304,"Ġrecruit":13305,"Ġrecalls":13306,"ĠThing":13307,"Ġperc":13308,"ulty":13309,"Ġdisorder":13310,"Ġagencies":13311,"ĠYet":13312,"Ġoutp":13313,"enshm":13314,"alsock":13315,"Ġsecuring":13316,"Ġremote":13317,"ĠComics":13318,"ĠComair":13319,"ĠArbe":13320,"Ġregister":13321,"Ġpeer":13322,"ĠShadow":13323,"Ġthereby":13324,"otherapy":13325,"Ġ126":13326,"ĠScandin":13327,"Ġdepends":13328,"Ġ119":13329,"Ġmillions":13330,"ĠIndolence":13331,"ĠMayor":13332,"Ġinfl":13333,"Ġinfected":13334,"ennial":13335,"Ġpreval":13336,"amedu":13337,"Ġcarn":13338,"Ġ137":13339,"Ġmodes":13340,"Ġcharacterised":13341,"Ġguitars":13342,"Ġannex":13343,"ĠFranz":13344,"Ġconfident":13345,"ĠMusical":13346,"Ġparade":13347,"Ġbreast":13348,"Ġdrink":13349,"ĠPrim":13350,"Ġdemanding":13351,"Ġdemographic":13352,"ĠManor":13353,"Ġviewpoint":13354,"leroderm":13355,"Ġtraders":13356,"ĠCharan":13357,"ĠCharacter":13358,"ĠTrade":13359,"ĠTruth":13360,"encer":13361,"Ġprofound":13362,"Ġsolitaire":13363,"Ġterrorist":13364,"Ġsometime":13365,"ogns":13366,"restrial":13367,"grim":13368,"Ġsuperst":13369,"Ġfights":13370,"ĠMorris":13371,"Ġ1888":13372,"Ġ355":13373,"ĠBoom":13374,"Ġ1863":13375,"ĠEmma":13376,"Ġachievements":13377,"ĠWilf":13378,"Ġ1877":13379,"ĠAppro":13380,"Ġcontrace":13381,"Ġ1836":13382,"Ġblockade":13383,"Ġfails":13384,"Ġdrown":13385,"ĠMerri":13386,"ĠMetropolitan":13387,"ĠReserve":13388,"inental":13389,"ĠBeyond":13390,"Ġattractive":13391,"Ġhopes":13392,"Ġacquis":13393,"ĠDelano":13394,"Ġthrows":13395,"Ġsalmon":13396,"ĠCommandments":13397,"ĠControl":13398,"ĠCasting":13399,"Ġhotels":13400,"Ġinvestigate":13401,"Ġdiseases":13402,"Ġharvest":13403,"Ġcanceled":13404,"ĠConfessions":13405,"Ġchemistry":13406,"ĠSarah":13407,"ĠEscape":13408,"Ġconcentrations":13409,"Ġmanufacturer":13410,"Ġmechanism":13411,"Ġneutron":13412,"Ġincorporates":13413,"ĠHistorical":13414,"Ġarticles":13415,"Ġvenom":13416,"Ġdoctor":13417,"ogenic":13418,"Ġphilosopher":13419,"ĠBarbara":13420,"ĠMoving":13421,"ĠLeonardo":13422,"Ġremnant":13423,"Ġcontributions":13424,"Ġreserves":13425,"Ġunsuccessfully":13426,"Ġdescendants":13427,"Ġcorrespondence":13428,"ĠWinds":13429,"Ġdownloadable":13430,"Ġsediment":13431,"ĠDurand":13432,"Ġskeleton":13433,"Ġswept":13434,"Ġornith":13435,"Ġprolong":13436,"Ġrumors":13437,"Ġhemmem":13438,"ĠMothers":13439,"Ġtributary":13440,"ĠNicholson":13441,"Ġhelicopters":13442,"Ġmammals":13443,"Ġattributes":13444,"ĠParalympic":13445,"Ġlatest":13446,"ĠNashville":13447,"Ġfatalities":13448,"ĠBarnes":13449,"Ġfossil":13450,"Ġenzymes":13451,"Ġsketch":13452,"ĠCarty":13453,"ĠObservatory":13454,"Ġbranches":13455,"Ġsupplied":13456,"ĠZhang":13457,"Ġlivestock":13458,"Ġreopened":13459,"ĠLoyalsock":13460,"Ġprecipitation":13461,"Ġenlarged":13462,"Ġscenario":13463,"ĠHarmon":13464,"Ġalgorith":13465,"ĠFITs":13466,"Ġvulnerable":13467,"ĠVishnu":13468,"ĠHospitall":13469,"ĠIntelligence":13470,"ĠGwendolen":13471,"ĠBuenos":13472,"ĠArikamedu":13473,"Ġrepertoire":13474,"orrhiz":13475,"Ġchannels":13476,"ĠAnselm":13477,"ĠDoofenshm":13478,"ĠSinclair":13479,"Ġnautical":13480,"bard":13481,"eus":13482,"fam":13483,"lon":13484,"lad":13485,"lims":13486,"pur":13487,"tovac":13488,"uits":13489,"vation":13490,"áº":13491,"Ġtet":13492,"Ġtension":13493,"inh":13494,"onium":13495,"Ġsor":13496,"Ġworse":13497,"Ġcub":13498,"Ġfever":13499,"Ġflee":13500,"anim":13501,"alo":13502,"Ġpover":13503,"Ġment":13504,"Ġdried":13505,"Ġhier":13506,"Ġhunt":13507,"leted":13508,"ĠTro":13509,"ĠTanya":13510,"ĠSak":13511,"ĠSovereign":13512,"ĠCA":13513,"ĠCur":13514,"ĠCul":13515,"ĠCert":13516,"elia":13517,"elih":13518,"Ġlas":13519,"Ġlion":13520,"Ġease":13521,"ĠMeth":13522,"ĠTheater":13523,"ĠBoulder":13524,"ĠIb":13525,"Ġgay":13526,"etary":13527,"oles":13528,"imp":13529,"immer":13530,"otilla":13531,"ĠHip":13532,"ĠHoys":13533,"ĠHadd":13534,"Ġstrain":13535,"Ġstuff":13536,"Ġstrange":13537,"Ġbeak":13538,"ĠRico":13539,"ĠRandy":13540,"ĠDraft":13541,"unct":13542,"employ":13543,"ĠFruit":13544,"ĠWa":13545,"ĠWonder":13546,"ĠGy":13547,"ĠLars":13548,"ĠNam":13549,"Ġanalys":13550,"Ġanonymous":13551,"Ġcomics":13552,"Ġvoyage":13553,"ortal":13554,"ppets":13555,"Ġsear":13556,"occ":13557,"ĠKra":13558,"ĠKum":13559,"ĠKarn":13560,"ĠUC":13561,"ĠStrong":13562,"asting":13563,"Ġspite":13564,"ritt":13565,"ĠChair":13566,"ĠVett":13567,"Ġincor":13568,"Ġarsenal":13569,"assing":13570,"Ġreserved":13571,"Ġrouting":13572,"ĠThings":13573,"plain":13574,"Ġjealous":13575,"Ġjunta":13576,"Ġoutcome":13577,"Ġoutput":13578,"cedes":13579,"Ġweb":13580,"Ġweighed":13581,"Ġworker":13582,"ĠEno":13583,"Ġrelating":13584,"Ġmegal":13585,"Ġthanks":13586,"Ġflaw":13587,"ologically":13588,"Ġrelevant":13589,"Ġregulation":13590,"Ġregiments":13591,"Ġformula":13592,"Ġassign":13593,"Ġassessed":13594,"ĠSeb":13595,"Ġquit":13596,"Ġinterception":13597,"Ġinterrupted":13598,"Ġintermediate":13599,"Ġamazing":13600,"ĠRef":13601,"Ġepit":13602,"Ġtraits":13603,"ĠScleroderm":13604,"rowing":13605,"prising":13606,"Ġadds":13607,"Ġmonaster":13608,"Ġ153":13609,"Ġ157":13610,"elfth":13611,"Ġrepaired":13612,"iker":13613,"ĠIndeed":13614,"Ġdirections":13615,"ĠConsequently":13616,"enna":13617,"Ġrespected":13618,"Ã©ra":13619,"Ġcarrier":13620,"ĠCarn":13621,"ĠCarr":13622,"Ġprovinces":13623,"omanry":13624,"ĠPlant":13625,"ĠPlaying":13626,"Ġmaturity":13627,"Ġ139":13628,"Ġsupports":13629,"Ġdamaging":13630,"ĠHerbert":13631,"ĠMegan":13632,"Ġcareers":13633,"Ġconfluence":13634,"Ġreflection":13635,"ĠMuslims":13636,"Ġpossessed":13637,"Ġthirds":13638,"ĠPhys":13639,"ambers":13640,"Ġrequiring":13641,"ĠOrtona":13642,"ĠManager":13643,"Ġtermed":13644,"levard":13645,"Ġmidfield":13646,"Ġarchipelago":13647,"Ġdelays":13648,"Ġconviction":13649,"Ġprojected":13650,"Ġvictorious":13651,"ĠAssist":13652,"ischer":13653,"Ġobserve":13654,"Ġfacts":13655,"Ġreadily":13656,"atorial":13657,"Ġcharting":13658,"ĠBlackburn":13659,"ĠRegard":13660,"ĠMichaels":13661,"ĠGlas":13662,"Ġadmir":13663,"Ġboost":13664,"ĠRoyston":13665,"ĠHamar":13666,"Ġidentifies":13667,"Ġ1853":13668,"Ġ1858":13669,"Ġimprov":13670,"Ġfarms":13671,"Ġcreature":13672,"ĠDuarte":13673,"Ġvolcan":13674,"Ġ1885":13675,"ĠGameS":13676,"stituted":13677,"ĠKhoo":13678,"Ġrebel":13679,"Ġcontracted":13680,"Ġfortified":13681,"Ġconducting":13682,"uckle":13683,"ĠMostar":13684,"Ġmerged":13685,"Ġthinks":13686,"ĠSquad":13687,"Ġdissolution":13688,"ĠAppl":13689,"Ġmaintains":13690,"Ġremoving":13691,"Ġcruise":13692,"Ġliterally":13693,"ĠLaud":13694,"ĠFilms":13695,"Ġdropping":13696,"Ġcomplained":13697,"Ġ750":13698,"Ġdiscussing":13699,"Ġdiscussions":13700,"Ġensuing":13701,"ĠCatholicism":13702,"Ġambitious":13703,"Ġcannon":13704,"ĠItalians":13705,"Ġthickness":13706,"Ġdegener":13707,"Ġgraphs":13708,"Ġphotography":13709,"ĠFinland":13710,"Ġlifestyle":13711,"Ġinvestigated":13712,"ĠErn":13713,"Ġversus":13714,"Ġjumps":13715,"ĠBolton":13716,"Ġmelod":13717,"ĠAvtovac":13718,"ocratic":13719,"Ġsnake":13720,"ĠReviewers":13721,"Ġcontacted":13722,"Ġneutrino":13723,"Ġlegislature":13724,"ĠKnights":13725,"Ġdeployment":13726,"Ġpanels":13727,"Ġcomprises":13728,"ĠMicro":13729,"ĠGiÃ£":13730,"ĠAdditional":13731,"ĠRosberg":13732,"Ġstrengthening":13733,"Ġstriker":13734,"Ġmortar":13735,"swick":13736,"Ġunusually":13737,"ĠSussex":13738,"Ġcooler":13739,"Ġsummit":13740,"Ġaccidentally":13741,"ĠMelbourne":13742,"ĠVolunte":13743,"ĠFeld":13744,"ĠFelicia":13745,"Ġlawsuit":13746,"Ġprosper":13747,"Ġexercised":13748,"ĠWinter":13749,"Ġbeside":13750,"Ġcorps":13751,"ĠDescrib":13752,"Ġfloating":13753,"Ġconquered":13754,"Ġclouds":13755,"ĠBroncos":13756,"Ġproceeds":13757,"ĠLaboratory":13758,"Ġprolific":13759,"Ġacclaimed":13760,"ĠAPF":13761,"ĠCulture":13762,"Ġcommitment":13763,"Ġorbital":13764,"Ġloyalty":13765,"Ġnavigation":13766,"ĠJennifer":13767,"Ġresignation":13768,"Ġnicknamed":13769,"Ġfrigate":13770,"Ġimprisoned":13771,"Ġerrors":13772,"ĠExpressway":13773,"ĠParalympics":13774,"ĠSupport":13775,"Ġumpire":13776,"ĠVeeru":13777,"ĠIndonesian":13778,"ĠPhilippines":13779,"Ġneighborhoods":13780,"Ġdodo":13781,"Ġseventeen":13782,"Ġveteran":13783,"ĠNME":13784,"Ġcelebration":13785,"ĠJagann":13786,"Ġincursion":13787,"ĠRIAA":13788,"ĠAssyrian":13789,"Ġenvelope":13790,"osystem":13791,"ĠBrunswick":13792,"ĠPokiri":13793,"Ġabnormal":13794,"Ġclusters":13795,"Ġeldest":13796,"Ġdisliked":13797,"ĠTucker":13798,"Ġalcohol":13799,"ĠOjibwe":13800,"Ġpoverty":13801,"elihood":13802,"ĠVettel":13803,"10":13804,"22":13805,"LC":13806,"TA":13807,"cel":13808,"front":13809,"lot":13810,"lio":13811,"sa":13812,"sky":13813,"yers":13814,"Ãł":13815,"Ġes":13816,"Ġtran":13817,"hell":13818,"hears":13819,"Ġtheolog":13820,"Ġtheories":13821,"Ġtheoret":13822,"onald":13823,"Ġsinking":13824,"edd":13825,"Ġomn":13826,"Ġwire":13827,"ndom":13828,"Ġfo":13829,"Ġfet":13830,"Ġfib":13831,"arc":13832,"Ġbite":13833,"Ġbapt":13834,"Ġinacc":13835,"Ġpm":13836,"Ġpest":13837,"Ġpock":13838,"Ġhate":13839,"ĠAch":13840,"ĠAqu":13841,"stick":13842,"ĠCot":13843,"ĠCore":13844,"ĠCost":13845,"Ġlock":13846,"Ġlung":13847,"Ġlighter":13848,"Ġna":13849,"adows":13850,"acular":13851,"ĠMult":13852,"ĠMann":13853,"ĠBun":13854,"ĠBoca":13855,"ĠIst":13856,"Ġgif":13857,"Ġgrap":13858,"idan":13859,"ivial":13860,"imol":13861,"imination":13862,"ĠHav":13863,"ĠHab":13864,"ĠHous":13865,"ĠHappy":13866,"usc":13867,"Ġstiff":13868,"ĠPont":13869,"heric":13870,"ĠFear":13871,"ĠFiction":13872,"ĠFitz":13873,"ĠFischer":13874,"Ġalbe":13875,"chan":13876,"ĠWey":13877,"ĠWany":13878,"ĠWemb":13879,"rah":13880,"raham":13881,"ĠGet":13882,"ĠGru":13883,"ĠLyc":13884,"ĠLakes":13885,"ĠLands":13886,"ĠLED":13887,"ĠNP":13888,"ĠNature":13889,"Ġank":13890,"isting":13891,"ĠOb":13892,"Ġproced":13893,"illon":13894,"Ġrice":13895,"Ġrises":13896,"arden":13897,"abh":13898,"ĠKid":13899,"ĠKras":13900,"ĠKusan":13901,"quir":13902,"Ġkids":13903,"ĠStopp":13904,"Ġsperm":13905,"Ġspelled":13906,"Ġye":13907,"Ġleaf":13908,"ineae":13909,"ighting":13910,"ĠChamber":13911,"oga":13912,"ogle":13913,"Ġunemploy":13914,"ĠVoy":13915,"ĠVoice":13916,"outed":13917,"Ġjoy":13918,"Ġenable":13919,"angered":13920,"ensional":13921,"amped":13922,"Ġallies":13923,"Ġbeta":13924,"ugged":13925,"Ġtraces":13926,"Ġrelocated":13927,"obon":13928,"Ġcolored":13929,"Ġactively":13930,"Ġformations":13931,"Ġassured":13932,"ĠSeas":13933,"Ġsubstances":13934,"Ġaccord":13935,"Ġraids":13936,"Ġrandom":13937,"anne":13938,"Ġsynd":13939,"ucle":13940,"arsha":13941,"Ġhighlights":13942,"Ġblank":13943,"Ġexpense":13944,"Ġmonk":13945,"Ġmetals":13946,"ĠIndians":13947,"ĠBrigadier":13948,"Ġinstances":13949,"Ġinfilt":13950,"ĠAustin":13951,"Ġwarrant":13952,"Ġprovisions":13953,"Ġ134":13954,"ĠColonna":13955,"ĠAden":13956,"anche":13957,"Ġvariant":13958,"ĠProdu":13959,"apper":13960,"Ġprogn":13961,"Ġtopological":13962,"Ġtracking":13963,"ĠHispan":13964,"ĠOrs":13965,"Ġcaptivity":13966,"Ġtrademark":13967,"ĠPerth":13968,"Ġforever":13969,"Ġeastward":13970,"aughter":13971,"Ġcompetitor":13972,"Ġ260":13973,"Ġterror":13974,"Ġpatients":13975,"rington":13976,"Ġaffection":13977,"Ġequally":13978,"space":13979,"ĠAirlines":13980,"Ġbarracks":13981,"ĠGlen":13982,"Ġadmits":13983,"Ġfunk":13984,"ĠExc":13985,"Ġwidth":13986,"araoh":13987,"Ġswing":13988,"lessness":13989,"ĠOliver":13990,"Ġsteambo":13991,"Ġtraditionally":13992,"Ġcellular":13993,"oresc":13994,"amaic":13995,"Ġseparation":13996,"Ġcollision":13997,"Ġquarters":13998,"Ġironc":13999,"ĠHenri":14000,"ĠGalile":14001,"ĠPeggy":14002,"Ġillum":14003,"ĠOdys":14004,"áĥĺ":14005,"Ġreasoning":14006,"ĠOlivia":14007,"Ġneglected":14008,"ĠQuar":14009,"Ġhonest":14010,"Ġcivilization":14011,"Ġclearing":14012,"Ġthreatening":14013,"Ġ1838":14014,"Ġsynonym":14015,"Ġphysically":14016,"Ġgraduating":14017,"Ġframes":14018,"Ġgraves":14019,"Ġeducated":14020,"ĠAntiqu":14021,"Ġ1847":14022,"irtz":14023,"Ġparticipating":14024,"ĠDrive":14025,"Ġvisitor":14026,"ĠMerc":14027,"ĠHolland":14028,"Ġembry":14029,"ĠPatriarch":14030,"Ġscreenplay":14031,"Ġcolonists":14032,"Ġconcludes":14033,"Ġshoots":14034,"ĠSurrender":14035,"Ġ330":14036,"Ġnuclei":14037,"Ġacquire":14038,"Ġjudg":14039,"ĠTempl":14040,"Ġsuspic":14041,"Ġsuspect":14042,"Ġparks":14043,"Ġharbor":14044,
[...]
